{
  "version": "1.0",
  "truncation": null,
  "padding": null,
  "added_tokens": [
    {
      "id": 0,
      "content": "[UNK]",
      "single_word": false,
      "lstrip": false,
      "rstrip": false,
      "normalized": false,
      "special": true
    },
    {
      "id": 1,
      "content": "[CLS]",
      "single_word": false,
      "lstrip": false,
      "rstrip": false,
      "normalized": false,
      "special": true
    },
    {
      "id": 2,
      "content": "[SEP]",
      "single_word": false,
      "lstrip": false,
      "rstrip": false,
      "normalized": false,
      "special": true
    },
    {
      "id": 3,
      "content": "[PAD]",
      "single_word": false,
      "lstrip": false,
      "rstrip": false,
      "normalized": false,
      "special": true
    },
    {
      "id": 4,
      "content": "[MASK]",
      "single_word": false,
      "lstrip": false,
      "rstrip": false,
      "normalized": false,
      "special": true
    }
  ],
  "normalizer": null,
  "pre_tokenizer": {
    "type": "Whitespace"
  },
  "post_processor": null,
  "decoder": null,
  "model": {
    "type": "BPE",
    "dropout": null,
    "unk_token": null,
    "continuing_subword_prefix": null,
    "end_of_word_suffix": null,
    "fuse_unk": false,
    "byte_fallback": false,
    "ignore_merges": false,
    "vocab": {
      "[UNK]": 0,
      "[CLS]": 1,
      "[SEP]": 2,
      "[PAD]": 3,
      "[MASK]": 4,
      "!": 5,
      "\"": 6,
      "'": 7,
      ",": 8,
      "-": 9,
      ".": 10,
      "/": 11,
      "0": 12,
      "1": 13,
      "2": 14,
      "3": 15,
      "4": 16,
      "5": 17,
      "6": 18,
      "7": 19,
      "8": 20,
      "9": 21,
      ":": 22,
      ";": 23,
      "<": 24,
      "=": 25,
      ">": 26,
      "?": 27,
      "A": 28,
      "B": 29,
      "C": 30,
      "D": 31,
      "E": 32,
      "F": 33,
      "G": 34,
      "H": 35,
      "I": 36,
      "J": 37,
      "K": 38,
      "L": 39,
      "M": 40,
      "N": 41,
      "O": 42,
      "P": 43,
      "Q": 44,
      "R": 45,
      "S": 46,
      "T": 47,
      "U": 48,
      "V": 49,
      "W": 50,
      "X": 51,
      "Y": 52,
      "Z": 53,
      "`": 54,
      "a": 55,
      "b": 56,
      "c": 57,
      "d": 58,
      "e": 59,
      "f": 60,
      "g": 61,
      "h": 62,
      "i": 63,
      "j": 64,
      "k": 65,
      "l": 66,
      "m": 67,
      "n": 68,
      "o": 69,
      "p": 70,
      "q": 71,
      "r": 72,
      "s": 73,
      "t": 74,
      "u": 75,
      "v": 76,
      "w": 77,
      "x": 78,
      "y": 79,
      "z": 80,
      "|": 81,
      "": 82,
      "": 83,
      "": 84,
      "é": 85,
      "ñ": 86,
      "–": 87,
      "—": 88,
      "‘": 89,
      "’": 90,
      "“": 91,
      "”": 92,
      "…": 93,
      "he": 94,
      "an": 95,
      "the": 96,
      "ed": 97,
      "to": 98,
      "and": 99,
      "in": 100,
      "re": 101,
      "it": 102,
      "wa": 103,
      "ou": 104,
      "en": 105,
      "ha": 106,
      "The": 107,
      "er": 108,
      "was": 109,
      "ay": 110,
      "om": 111,
      "is": 112,
      "on": 113,
      "ar": 114,
      "im": 115,
      "ll": 116,
      "sa": 117,
      "id": 118,
      "le": 119,
      "ing": 120,
      "end": 121,
      "st": 122,
      "ot": 123,
      "am": 124,
      "or": 125,
      "ir": 126,
      "of": 127,
      "ne": 128,
      "They": 129,
      "pl": 130,
      "ig": 131,
      "at": 132,
      "He": 133,
      "il": 134,
      "be": 135,
      "all": 136,
      "ri": 137,
      "lo": 138,
      "ver": 139,
      "his": 140,
      "day": 141,
      "play": 142,
      "Tim": 143,
      "ut": 144,
      "ith": 145,
      "said": 146,
      "with": 147,
      "pp": 148,
      "se": 149,
      "her": 150,
      "ked": 151,
      "ow": 152,
      "ce": 153,
      "un": 154,
      "ke": 155,
      "ld": 156,
      "She": 157,
      "hat": 158,
      "th": 159,
      "big": 160,
      "ex": 161,
      "very": 162,
      "you": 163,
      "ted": 164,
      "ve": 165,
      "ck": 166,
      "li": 167,
      "we": 168,
      "happ": 169,
      "riend": 170,
      "up": 171,
      "friend": 172,
      "they": 173,
      "oft": 174,
      "ily": 175,
      "had": 176,
      "ad": 177,
      "not": 178,
      "wan": 179,
      "ge": 180,
      "itt": 181,
      "ext": 182,
      "<|": 183,
      "|>": 184,
      "endoft": 185,
      "endoftext": 186,
      "do": 187,
      "ther": 188,
      "ome": 189,
      "nd": 190,
      "bo": 191,
      "happy": 192,
      "al": 193,
      "ent": 194,
      "ch": 195,
      "for": 196,
      "she": 197,
      "saw": 198,
      "One": 199,
      "Lily": 200,
      "that": 201,
      "ould": 202,
      "ittle": 203,
      "mom": 204,
      "little": 205,
      "ime": 206,
      "so": 207,
      "time": 208,
      "as": 209,
      "Tom": 210,
      "ro": 211,
      "nam": 212,
      "fe": 213,
      "ound": 214,
      ".\"": 215,
      "there": 216,
      "es": 217,
      "named": 218,
      "oo": 219,
      "sm": 220,
      "were": 221,
      "wanted": 222,
      "friends": 223,
      "but": 224,
      "ird": 225,
      "ved": 226,
      "It": 227,
      "!\"": 228,
      "ht": 229,
      "bird": 230,
      "sh": 231,
      "ry": 232,
      "ra": 233,
      "too": 234,
      "On": 235,
      "my": 236,
      "are": 237,
      "ake": 238,
      "out": 239,
      "went": 240,
      "lp": 241,
      "ide": 242,
      "Once": 243,
      "ter": 244,
      "ug": 245,
      "ue": 246,
      "help": 247,
      "loo": 248,
      "car": 249,
      "upon": 250,
      "thing": 251,
      "toy": 252,
      "fun": 253,
      "ind": 254,
      "ill": 255,
      "ame": 256,
      "cat": 257,
      "gether": 258,
      "pe": 259,
      "ly": 260,
      "did": 261,
      "way": 262,
      "ur": 263,
      "together": 264,
      "one": 265,
      "some": 266,
      "me": 267,
      "ore": 268,
      "ack": 269,
      "ag": 270,
      "tre": 271,
      "dog": 272,
      "new": 273,
      "can": 274,
      "ball": 275,
      "could": 276,
      "came": 277,
      "ood": 278,
      "gir": 279,
      "their": 280,
      "par": 281,
      "girl": 282,
      "played": 283,
      "ic": 284,
      "But": 285,
      "him": 286,
      "go": 287,
      "?\"": 288,
      "ho": 289,
      "fu": 290,
      "um": 291,
      "hen": 292,
      "rom": 293,
      "them": 294,
      "man": 295,
      "Sue": 296,
      "boy": 297,
      "sad": 298,
      "ax": 299,
      "tree": 300,
      "Max": 301,
      "have": 302,
      "oug": 303,
      "loved": 304,
      "found": 305,
      "looked": 306,
      "hed": 307,
      "ab": 308,
      "star": 309,
      "side": 310,
      "back": 311,
      "Ben": 312,
      "other": 313,
      "ain": 314,
      "own": 315,
      "park": 316,
      "Sam": 317,
      "la": 318,
      "op": 319,
      "lt": 320,
      "pot": 321,
      "like": 322,
      "ful": 323,
      "de": 324,
      "pr": 325,
      "would": 326,
      "ong": 327,
      "fa": 328,
      "ight": 329,
      "liked": 330,
      "et": 331,
      "no": 332,
      "ran": 333,
      "sto": 334,
      "make": 335,
      "felt": 336,
      "co": 337,
      "ca": 338,
      "want": 339,
      "asked": 340,
      "now": 341,
      "You": 342,
      "see": 343,
      "started": 344,
      "ought": 345,
      "ouse": 346,
      "ard": 347,
      "iled": 348,
      "ice": 349,
      "good": 350,
      "Spot": 351,
      "small": 352,
      "wor": 353,
      "smiled": 354,
      "red": 355,
      "ried": 356,
      "mad": 357,
      "scar": 358,
      "more": 359,
      "say": 360,
      "king": 361,
      "gr": 362,
      "find": 363,
      "away": 364,
      "home": 365,
      "from": 366,
      "made": 367,
      "thought": 368,
      "what": 369,
      "Mom": 370,
      "put": 371,
      "sha": 372,
      "ty": 373,
      "playing": 374,
      "ened": 375,
      "something": 376,
      "uc": 377,
      "wal": 378,
      "ach": 379,
      "every": 380,
      "mu": 381,
      "ny": 382,
      "again": 383,
      "ia": 384,
      "down": 385,
      "ile": 386,
      "arn": 387,
      "toys": 388,
      "box": 389,
      "use": 390,
      "scared": 391,
      "ret": 392,
      "took": 393,
      "Mia": 394,
      "laug": 395,
      "house": 396,
      "dd": 397,
      "get": 398,
      "around": 399,
      "ure": 400,
      "ish": 401,
      "learn": 402,
      "ss": 403,
      "ob": 404,
      "got": 405,
      "oud": 406,
      "your": 407,
      "lived": 408,
      "things": 409,
      "sun": 410,
      "then": 411,
      "will": 412,
      "ick": 413,
      "ave": 414,
      "lot": 415,
      "el": 416,
      "So": 417,
      "pec": 418,
      "ep": 419,
      "bot": 420,
      "ie": 421,
      "der": 422,
      "na": 423,
      "low": 424,
      "when": 425,
      "pped": 426,
      ",\"": 427,
      "uck": 428,
      "if": 429,
      "te": 430,
      "Luc": 431,
      "Lucy": 432,
      "who": 433,
      "tried": 434,
      "ant": 435,
      "room": 436,
      "know": 437,
      "ited": 438,
      "ump": 439,
      "ust": 440,
      "many": 441,
      "about": 442,
      "says": 443,
      "any": 444,
      "ally": 445,
      "pic": 446,
      "knew": 447,
      "care": 448,
      "pret": 449,
      "us": 450,
      "dec": 451,
      "ise": 452,
      "ous": 453,
      "by": 454,
      "ways": 455,
      "ate": 456,
      "And": 457,
      "best": 458,
      "qu": 459,
      "fter": 460,
      "ive": 461,
      "We": 462,
      "ank": 463,
      "cause": 464,
      "became": 465,
      "long": 466,
      "pu": 467,
      "water": 468,
      "ite": 469,
      "ist": 470,
      "learned": 471,
      "exc": 472,
      "because": 473,
      "cl": 474,
      "bl": 475,
      "nex": 476,
      "always": 477,
      "look": 478,
      "mo": 479,
      "outside": 480,
      "into": 481,
      "both": 482,
      "eat": 483,
      "ided": 484,
      "br": 485,
      "show": 486,
      "laughed": 487,
      "fore": 488,
      "gre": 489,
      "decided": 490,
      "run": 491,
      "ang": 492,
      "here": 493,
      "ers": 494,
      "cle": 495,
      "Let": 496,
      "Then": 497,
      "An": 498,
      "po": 499,
      "jump": 500,
      "When": 501,
      "bb": 502,
      "fast": 503,
      "hug": 504,
      "sor": 505,
      "Bob": 506,
      "old": 507,
      "this": 508,
      "nice": 509,
      "Yes": 510,
      "excited": 511,
      "ok": 512,
      "sur": 513,
      "wh": 514,
      "ma": 515,
      "pa": 516,
      "dad": 517,
      "feel": 518,
      "clo": 519,
      "told": 520,
      "ook": 521,
      "sk": 522,
      "inside": 523,
      "ta": 524,
      "fish": 525,
      "come": 526,
      "lew": 527,
      "His": 528,
      "gave": 529,
      "bu": 530,
      "take": 531,
      "let": 532,
      "ink": 533,
      "iny": 534,
      "jo": 535,
      "Amy": 536,
      "pretty": 537,
      "Anna": 538,
      "surpr": 539,
      "each": 540,
      "udd": 541,
      "our": 542,
      "tr": 543,
      "imal": 544,
      "ell": 545,
      "animal": 546,
      "ac": 547,
      "much": 548,
      "how": 549,
      "ara": 550,
      "under": 551,
      "need": 552,
      "able": 553,
      "than": 554,
      "ven": 555,
      "As": 556,
      "rd": 557,
      "its": 558,
      "sw": 559,
      "fly": 560,
      "flow": 561,
      "sorry": 562,
      "Th": 563,
      "Can": 564,
      "walked": 565,
      "Thank": 566,
      "rock": 567,
      "hand": 568,
      "ised": 569,
      "urn": 570,
      "ged": 571,
      "Sara": 572,
      "kind": 573,
      "lea": 574,
      "ff": 575,
      "urt": 576,
      "wat": 577,
      "In": 578,
      "try": 579,
      "Her": 580,
      "read": 581,
      "ving": 582,
      "hig": 583,
      "spec": 584,
      "animals": 585,
      "dre": 586,
      "rain": 587,
      "just": 588,
      "happened": 589,
      "food": 590,
      "sky": 591,
      "list": 592,
      "cre": 593,
      "ket": 594,
      "near": 595,
      "From": 596,
      "didn": 597,
      "che": 598,
      "idea": 599,
      "ace": 600,
      "bet": 601,
      "fi": 602,
      "never": 603,
      "ber": 604,
      "ine": 605,
      "flew": 606,
      "cake": 607,
      "tal": 608,
      "careful": 609,
      "share": 610,
      "heard": 611,
      "better": 612,
      "ial": 613,
      "bro": 614,
      "str": 615,
      "bed": 616,
      "special": 617,
      "tw": 618,
      "nt": 619,
      "lad": 620,
      "Every": 621,
      "col": 622,
      "ion": 623,
      "bear": 624,
      "lots": 625,
      "lf": 626,
      "sp": 627,
      "give": 628,
      "wind": 629,
      "tow": 630,
      "love": 631,
      "com": 632,
      "bug": 633,
      "anymore": 634,
      "clean": 635,
      "udden": 636,
      "don": 637,
      "safe": 638,
      "where": 639,
      "That": 640,
      "ground": 641,
      "ople": 642,
      "rabb": 643,
      "over": 644,
      "mag": 645,
      "uddenly": 646,
      "per": 647,
      "ass": 648,
      "turn": 649,
      "even": 650,
      "rm": 651,
      "people": 652,
      "after": 653,
      "fam": 654,
      "hard": 655,
      "Do": 656,
      "bad": 657,
      "door": 658,
      "high": 659,
      "unt": 660,
      "app": 661,
      "shiny": 662,
      "proud": 663,
      "clim": 664,
      "opened": 665,
      "hurt": 666,
      "fo": 667,
      "book": 668,
      "picked": 669,
      "blue": 670,
      "ru": 671,
      "loud": 672,
      "uff": 673,
      "bea": 674,
      "place": 675,
      "ever": 676,
      "pected": 677,
      "far": 678,
      "surprised": 679,
      "unex": 680,
      "unexpected": 681,
      "ear": 682,
      "thanked": 683,
      "ummy": 684,
      "call": 685,
      "color": 686,
      "Sally": 687,
      "ct": 688,
      "gard": 689,
      "garden": 690,
      "magic": 691,
      "mor": 692,
      "ough": 693,
      "What": 694,
      "cha": 695,
      "Suddenly": 696,
      "walk": 697,
      "hugged": 698,
      "Wh": 699,
      "No": 700,
      "still": 701,
      "Jo": 702,
      "off": 703,
      "smile": 704,
      "ool": 705,
      "sl": 706,
      "jumped": 707,
      "family": 708,
      "squ": 709,
      "until": 710,
      "unny": 711,
      "dan": 712,
      "should": 713,
      "ark": 714,
      "kid": 715,
      "stick": 716,
      "itty": 717,
      "stay": 718,
      "forest": 719,
      "ture": 720,
      "strong": 721,
      "rel": 722,
      "bra": 723,
      "boat": 724,
      "dy": 725,
      "ess": 726,
      "Kitty": 727,
      "luff": 728,
      "luffy": 729,
      "imp": 730,
      "great": 731,
      "After": 732,
      "beaut": 733,
      "next": 734,
      "ste": 735,
      "helped": 736,
      "lly": 737,
      "rog": 738,
      "pt": 739,
      "ort": 740,
      "lease": 741,
      "happily": 742,
      "This": 743,
      "ning": 744,
      "met": 745,
      "ak": 746,
      "picture": 747,
      "yes": 748,
      "ched": 749,
      "story": 750,
      "beauti": 751,
      "listen": 752,
      "beautiful": 753,
      "sed": 754,
      "dra": 755,
      "showed": 756,
      "while": 757,
      "called": 758,
      "ble": 759,
      "open": 760,
      "kids": 761,
      "Now": 762,
      "At": 763,
      "frog": 764,
      "soft": 765,
      "Fluffy": 766,
      "town": 767,
      "everyone": 768,
      "keep": 769,
      "cu": 770,
      "being": 771,
      "ree": 772,
      "ane": 773,
      "stopped": 774,
      "yummy": 775,
      "angry": 776,
      "sing": 777,
      "watch": 778,
      "joy": 779,
      "doll": 780,
      "vent": 781,
      "couldn": 782,
      "ip": 783,
      "truck": 784,
      "ished": 785,
      "mouse": 786,
      "mon": 787,
      "top": 788,
      "les": 789,
      "ild": 790,
      "Fin": 791,
      "ond": 792,
      "face": 793,
      "lost": 794,
      "cream": 795,
      "slide": 796,
      "warm": 797,
      "flowers": 798,
      "lock": 799,
      "brave": 800,
      "game": 801,
      "work": 802,
      "fell": 803,
      "leave": 804,
      "ask": 805,
      "rabbit": 806,
      "two": 807,
      "owl": 808,
      "key": 809,
      "Jack": 810,
      "laugh": 811,
      "less": 812,
      "swing": 813,
      "store": 814,
      "cry": 815,
      "right": 816,
      "Look": 817,
      "illy": 818,
      "llo": 819,
      "soon": 820,
      "noise": 821,
      "won": 822,
      "green": 823,
      "also": 824,
      "nodd": 825,
      "flower": 826,
      "self": 827,
      "ung": 828,
      "having": 829,
      "sat": 830,
      "used": 831,
      "Hi": 832,
      "bunny": 833,
      "sn": 834,
      "nodded": 835,
      "gan": 836,
      "fix": 837,
      "ired": 838,
      "cook": 839,
      "hole": 840,
      "yell": 841,
      "zz": 842,
      "before": 843,
      "ser": 844,
      "table": 845,
      "kept": 846,
      "pain": 847,
      "hear": 848,
      "yard": 849,
      "looking": 850,
      "catch": 851,
      "hands": 852,
      "ama": 853,
      "fin": 854,
      "set": 855,
      "irrel": 856,
      "head": 857,
      "irst": 858,
      "mber": 859,
      "thr": 860,
      "expl": 861,
      "mommy": 862,
      "funny": 863,
      "birds": 864,
      "squirrel": 865,
      "Don": 866,
      "vo": 867,
      "uch": 868,
      "shed": 869,
      "night": 870,
      "tired": 871,
      "going": 872,
      "swe": 873,
      "kit": 874,
      "rest": 875,
      "aybe": 876,
      "cut": 877,
      "leep": 878,
      "mean": 879,
      "zed": 880,
      "cra": 881,
      "ught": 882,
      "race": 883,
      "pull": 884,
      "tri": 885,
      "dif": 886,
      "wait": 887,
      "fav": 888,
      "ting": 889,
      "sunny": 890,
      "pond": 891,
      "member": 892,
      "has": 893,
      "chen": 894,
      "kitchen": 895,
      "wr": 896,
      "Why": 897,
      "party": 898,
      "think": 899,
      "flo": 900,
      "tor": 901,
      "Mommy": 902,
      "orn": 903,
      "cold": 904,
      "worked": 905,
      "llow": 906,
      "Joh": 907,
      "okay": 908,
      "ious": 909,
      "move": 910,
      "John": 911,
      "ies": 912,
      "others": 913,
      "climb": 914,
      "sound": 915,
      "moral": 916,
      "eyes": 917,
      "ft": 918,
      "tell": 919,
      "sand": 920,
      "Dad": 921,
      "cou": 922,
      "talk": 923,
      "advent": 924,
      "shared": 925,
      "ath": 926,
      "remember": 927,
      "Hello": 928,
      "favor": 929,
      "favorite": 930,
      "shar": 931,
      "hone": 932,
      "pie": 933,
      "con": 934,
      "curi": 935,
      "hill": 936,
      "import": 937,
      "dir": 938,
      "Timmy": 939,
      "sho": 940,
      "enjoy": 941,
      "making": 942,
      "follow": 943,
      "curious": 944,
      "bright": 945,
      "agre": 946,
      "age": 947,
      "light": 948,
      "dis": 949,
      "duck": 950,
      "ken": 951,
      "bar": 952,
      "ash": 953,
      "mess": 954,
      "draw": 955,
      "first": 956,
      "Mr": 957,
      "important": 958,
      "wel": 959,
      "agreed": 960,
      "times": 961,
      "gu": 962,
      "ster": 963,
      "began": 964,
      "tall": 965,
      "block": 966,
      "pick": 967,
      "watched": 968,
      "ze": 969,
      "sleep": 970,
      "lady": 971,
      "tail": 972,
      "air": 973,
      "Wow": 974,
      "hot": 975,
      "hid": 976,
      "fere": 977,
      "bre": 978,
      "differe": 979,
      "hung": 980,
      "pen": 981,
      "floor": 982,
      "stop": 983,
      "Bo": 984,
      "ied": 985,
      "led": 986,
      "sweet": 987,
      "cla": 988,
      "dark": 989,
      "bag": 990,
      "Jane": 991,
      "ign": 992,
      "worry": 993,
      "song": 994,
      "fr": 995,
      "stand": 996,
      "que": 997,
      "prin": 998,
      "grass": 999,
      "please": 1000,
      "needed": 1001,
      "leaves": 1002,
      "dress": 1003,
      "voice": 1004,
      "yellow": 1005,
      "farm": 1006,
      "hair": 1007,
      "trees": 1008,
      "paper": 1009,
      "ries": 1010,
      "different": 1011,
      "walking": 1012,
      "adventure": 1013,
      "surprise": 1014,
      "ced": 1015,
      "turned": 1016,
      "hungry": 1017,
      "tle": 1018,
      "bye": 1019,
      "does": 1020,
      "cars": 1021,
      "Bobo": 1022,
      "colors": 1023,
      "Maybe": 1024,
      "feeling": 1025,
      "ange": 1026,
      "ready": 1027,
      "hind": 1028,
      "din": 1029,
      "land": 1030,
      "closer": 1031,
      "lion": 1032,
      "pretend": 1033,
      "broken": 1034,
      "piece": 1035,
      "ient": 1036,
      "prom": 1037,
      "ila": 1038,
      "cried": 1039,
      "med": 1040,
      "wood": 1041,
      "ger": 1042,
      "friendly": 1043,
      "wet": 1044,
      "full": 1045,
      "behind": 1046,
      "Lila": 1047,
      "cked": 1048,
      "train": 1049,
      "river": 1050,
      "mis": 1051,
      "isy": 1052,
      "To": 1053,
      "reac": 1054,
      "dance": 1055,
      "sit": 1056,
      "touch": 1057,
      "dro": 1058,
      "climbed": 1059,
      "fire": 1060,
      "another": 1061,
      "gone": 1062,
      "apple": 1063,
      "smell": 1064,
      "swim": 1065,
      "blocks": 1066,
      "All": 1067,
      "lie": 1068,
      "gg": 1069,
      "ater": 1070,
      "butter": 1071,
      "tra": 1072,
      "pet": 1073,
      "running": 1074,
      "mou": 1075,
      "word": 1076,
      "je": 1077,
      "listened": 1078,
      "roll": 1079,
      "reached": 1080,
      "cket": 1081,
      "helping": 1082,
      "fair": 1083,
      "goodbye": 1084,
      "iced": 1085,
      "hold": 1086,
      "fight": 1087,
      "ple": 1088,
      "only": 1089,
      "cr": 1090,
      "aby": 1091,
      "wear": 1092,
      "plan": 1093,
      "There": 1094,
      "hop": 1095,
      "thank": 1096,
      "av": 1097,
      "ike": 1098,
      "mar": 1099,
      "pushed": 1100,
      "ner": 1101,
      "slow": 1102,
      "wise": 1103,
      "close": 1104,
      "Just": 1105,
      "Everyone": 1106,
      "done": 1107,
      "fl": 1108,
      "ward": 1109,
      "kay": 1110,
      "wall": 1111,
      "cool": 1112,
      "glad": 1113,
      "must": 1114,
      "fru": 1115,
      "tiny": 1116,
      "ield": 1117,
      "wonder": 1118,
      "moment": 1119,
      "stuck": 1120,
      "dream": 1121,
      "bit": 1122,
      "trying": 1123,
      "chair": 1124,
      "cast": 1125,
      "through": 1126,
      "gl": 1127,
      "swa": 1128,
      "wished": 1129,
      "sees": 1130,
      "coming": 1131,
      "ered": 1132,
      "ames": 1133,
      "reach": 1134,
      "baby": 1135,
      "been": 1136,
      "outed": 1137,
      "join": 1138,
      "window": 1139,
      "explore": 1140,
      "repl": 1141,
      "looks": 1142,
      "real": 1143,
      "ppy": 1144,
      "ton": 1145,
      "doing": 1146,
      "fall": 1147,
      "Soon": 1148,
      "buy": 1149,
      "shouted": 1150,
      "build": 1151,
      "hide": 1152,
      "nest": 1153,
      "wag": 1154,
      "cloud": 1155,
      "deli": 1156,
      "swam": 1157,
      "bor": 1158,
      "bran": 1159,
      "ary": 1160,
      "ings": 1161,
      "scary": 1162,
      "ins": 1163,
      "mat": 1164,
      "blew": 1165,
      "bow": 1166,
      "seen": 1167,
      "andy": 1168,
      "dr": 1169,
      "held": 1170,
      "dirty": 1171,
      "bigger": 1172,
      "quick": 1173,
      "replied": 1174,
      "grabb": 1175,
      "Okay": 1176,
      "year": 1177,
      "left": 1178,
      "nap": 1179,
      "treat": 1180,
      "sure": 1181,
      "win": 1182,
      "might": 1183,
      "fill": 1184,
      "why": 1185,
      "andma": 1186,
      "colorful": 1187,
      "pulled": 1188,
      "grabbed": 1189,
      "turns": 1190,
      "zy": 1191,
      "Inside": 1192,
      "cup": 1193,
      "remembered": 1194,
      "name": 1195,
      "ucky": 1196,
      "broke": 1197,
      "wo": 1198,
      "spl": 1199,
      "sometimes": 1200,
      "aisy": 1201,
      "oon": 1202,
      "spo": 1203,
      "three": 1204,
      "tast": 1205,
      "hopped": 1206,
      "ants": 1207,
      "pink": 1208,
      "arm": 1209,
      "Oh": 1210,
      "stayed": 1211,
      "oup": 1212,
      "snow": 1213,
      "Be": 1214,
      "job": 1215,
      "clapped": 1216,
      "games": 1217,
      "mi": 1218,
      "gif": 1219,
      "Finally": 1220,
      "waited": 1221,
      "rot": 1222,
      "castle": 1223,
      "thre": 1224,
      "noticed": 1225,
      "grow": 1226,
      "bus": 1227,
      "em": 1228,
      "balloon": 1229,
      "lesson": 1230,
      "art": 1231,
      "anything": 1232,
      "whis": 1233,
      "pictures": 1234,
      "woods": 1235,
      "mouth": 1236,
      "waved": 1237,
      "qui": 1238,
      "enjoyed": 1239,
      "spot": 1240,
      "alone": 1241,
      "Budd": 1242,
      "Buddy": 1243,
      "pare": 1244,
      "sea": 1245,
      "heav": 1246,
      "pill": 1247,
      "erous": 1248,
      "While": 1249,
      "brother": 1250,
      "ali": 1251,
      "likes": 1252,
      "Daisy": 1253,
      "oun": 1254,
      "round": 1255,
      "\".": 1256,
      "tight": 1257,
      "threw": 1258,
      "white": 1259,
      "paint": 1260,
      "heavy": 1261,
      "vis": 1262,
      "followed": 1263,
      "gent": 1264,
      "butterfly": 1265,
      "quickly": 1266,
      "ju": 1267,
      "Please": 1268,
      "dry": 1269,
      "whe": 1270,
      "cookies": 1271,
      "cont": 1272,
      "asure": 1273,
      "books": 1274,
      "deep": 1275,
      "everywhere": 1276,
      "bee": 1277,
      "pat": 1278,
      "board": 1279,
      "ation": 1280,
      "forgot": 1281,
      "world": 1282,
      "gi": 1283,
      "thes": 1284,
      "wrong": 1285,
      "di": 1286,
      "stran": 1287,
      "clothes": 1288,
      "Billy": 1289,
      "corn": 1290,
      "row": 1291,
      "Sarah": 1292,
      "Tommy": 1293,
      "leaf": 1294,
      "pre": 1295,
      "ross": 1296,
      "mum": 1297,
      "button": 1298,
      "mix": 1299,
      "pur": 1300,
      "quiet": 1301,
      "parent": 1302,
      "fur": 1303,
      "makes": 1304,
      "well": 1305,
      "brought": 1306,
      "ap": 1307,
      "wants": 1308,
      "himself": 1309,
      "field": 1310,
      "oom": 1311,
      "ather": 1312,
      "ride": 1313,
      "fully": 1314,
      "stone": 1315,
      "olly": 1316,
      "wish": 1317,
      "break": 1318,
      "Le": 1319,
      "danced": 1320,
      "pes": 1321,
      "tower": 1322,
      "sign": 1323,
      "sc": 1324,
      "thy": 1325,
      "lar": 1326,
      "snack": 1327,
      "drag": 1328,
      "ister": 1329,
      "faster": 1330,
      "gift": 1331,
      "stu": 1332,
      "talked": 1333,
      "zing": 1334,
      "beach": 1335,
      "leg": 1336,
      "Em": 1337,
      "sister": 1338,
      "live": 1339,
      "mus": 1340,
      "cy": 1341,
      "ph": 1342,
      "stre": 1343,
      "finished": 1344,
      "cess": 1345,
      "dang": 1346,
      "ence": 1347,
      "branch": 1348,
      "gra": 1349,
      "pro": 1350,
      "Re": 1351,
      "itten": 1352,
      "sharing": 1353,
      "bike": 1354,
      "wi": 1355,
      "ba": 1356,
      "dinner": 1357,
      "fruit": 1358,
      "dragon": 1359,
      "pers": 1360,
      "plane": 1361,
      "ued": 1362,
      "really": 1363,
      "most": 1364,
      "Joe": 1365,
      "understand": 1366,
      "ele": 1367,
      "shin": 1368,
      "black": 1369,
      "af": 1370,
      "hit": 1371,
      "bottle": 1372,
      "Jen": 1373,
      "sec": 1374,
      "monkey": 1375,
      "Come": 1376,
      "fox": 1377,
      "spr": 1378,
      "reali": 1379,
      "pper": 1380,
      "monster": 1381,
      "pig": 1382,
      "ub": 1383,
      "orange": 1384,
      "poin": 1385,
      "worried": 1386,
      "rocks": 1387,
      "contin": 1388,
      "carefully": 1389,
      "bowl": 1390,
      "smart": 1391,
      "cover": 1392,
      "someone": 1393,
      "Mim": 1394,
      "filled": 1395,
      "Mimi": 1396,
      "fairy": 1397,
      "today": 1398,
      "ses": 1399,
      "boun": 1400,
      "eating": 1401,
      "pow": 1402,
      "pudd": 1403,
      "min": 1404,
      "amp": 1405,
      "cow": 1406,
      "free": 1407,
      "itting": 1408,
      "brown": 1409,
      "snake": 1410,
      "stead": 1411,
      "promised": 1412,
      "fan": 1413,
      "ance": 1414,
      "fect": 1415,
      "appear": 1416,
      "silly": 1417,
      "happen": 1418,
      "parents": 1419,
      "everything": 1420,
      "moved": 1421,
      "spe": 1422,
      "dren": 1423,
      "pass": 1424,
      "ildren": 1425,
      "else": 1426,
      "soup": 1427,
      "push": 1428,
      "music": 1429,
      "children": 1430,
      "mud": 1431,
      "letter": 1432,
      "phone": 1433,
      "ts": 1434,
      "shop": 1435,
      "words": 1436,
      "pieces": 1437,
      "mother": 1438,
      "road": 1439,
      "wave": 1440,
      "bite": 1441,
      "sang": 1442,
      "continued": 1443,
      "talking": 1444,
      "kite": 1445,
      "perfect": 1446,
      "egg": 1447,
      "ated": 1448,
      "flying": 1449,
      "igh": 1450,
      "smiles": 1451,
      "mail": 1452,
      "throw": 1453,
      "realized": 1454,
      "har": 1455,
      "dri": 1456,
      "sy": 1457,
      "oth": 1458,
      ".”": 1459,
      "jar": 1460,
      "amazing": 1461,
      "bath": 1462,
      "laughing": 1463,
      "wagged": 1464,
      "card": 1465,
      "itch": 1466,
      "sitting": 1467,
      "enough": 1468,
      "closed": 1469,
      "hes": 1470,
      "visit": 1471,
      "My": 1472,
      "without": 1473,
      "dangerous": 1474,
      "shining": 1475,
      "Molly": 1476,
      "asks": 1477,
      "crab": 1478,
      "sail": 1479,
      "rope": 1480,
      "strange": 1481,
      "ote": 1482,
      "welcome": 1483,
      "barked": 1484,
      "secret": 1485,
      "cious": 1486,
      "drink": 1487,
      "tasty": 1488,
      "Bl": 1489,
      "OK": 1490,
      "sel": 1491,
      "smo": 1492,
      "paw": 1493,
      "pping": 1494,
      "heal": 1495,
      "crying": 1496,
      "Some": 1497,
      "lone": 1498,
      "ises": 1499,
      "candy": 1500,
      "zzy": 1501,
      "living": 1502,
      "higher": 1503,
      "ches": 1504,
      "lonely": 1505,
      "past": 1506,
      "sack": 1507,
      "belie": 1508,
      "icy": 1509,
      "Bell": 1510,
      "owner": 1511,
      "lla": 1512,
      "shoes": 1513,
      "orm": 1514,
      "morning": 1515,
      "farmer": 1516,
      "kn": 1517,
      "getting": 1518,
      "chool": 1519,
      "rolled": 1520,
      "school": 1521,
      "delicious": 1522,
      "scream": 1523,
      "llie": 1524,
      "mind": 1525,
      "teac": 1526,
      "comfor": 1527,
      "swings": 1528,
      "Whis": 1529,
      "grandma": 1530,
      "finally": 1531,
      "years": 1532,
      "!”": 1533,
      "ible": 1534,
      "ng": 1535,
      "net": 1536,
      "oney": 1537,
      "Together": 1538,
      "puddle": 1539,
      "dolls": 1540,
      "su": 1541,
      "va": 1542,
      "igg": 1543,
      "balls": 1544,
      "Leo": 1545,
      "shell": 1546,
      "ctor": 1547,
      "purple": 1548,
      "lake": 1549,
      "cks": 1550,
      "Blue": 1551,
      "asket": 1552,
      "count": 1553,
      "blan": 1554,
      "trou": 1555,
      "caught": 1556,
      "blanket": 1557,
      "stoo": 1558,
      "Fred": 1559,
      "treasure": 1560,
      "wards": 1561,
      "kers": 1562,
      "money": 1563,
      "pi": 1564,
      "wore": 1565,
      "runs": 1566,
      "basket": 1567,
      "hoped": 1568,
      "Bella": 1569,
      "pile": 1570,
      "plant": 1571,
      "Gr": 1572,
      "same": 1573,
      "singing": 1574,
      "unch": 1575,
      "lay": 1576,
      "wings": 1577,
      "herself": 1578,
      "ons": 1579,
      "kno": 1580,
      "apples": 1581,
      "Whiskers": 1582,
      "band": 1583,
      "ben": 1584,
      "mine": 1585,
      "cute": 1586,
      "days": 1587,
      "coat": 1588,
      "gentle": 1589,
      "stood": 1590,
      "Ch": 1591,
      "kis": 1592,
      "carrot": 1593,
      "cray": 1594,
      "eleph": 1595,
      "Mark": 1596,
      "sear": 1597,
      "teacher": 1598,
      "start": 1599,
      "dropped": 1600,
      "seed": 1601,
      "teddy": 1602,
      "shelf": 1603,
      "cour": 1604,
      "irth": 1605,
      "doctor": 1606,
      "irthday": 1607,
      "woke": 1608,
      "Go": 1609,
      "fit": 1610,
      "Their": 1611,
      "course": 1612,
      "forever": 1613,
      "promise": 1614,
      "ughty": 1615,
      "Good": 1616,
      "arri": 1617,
      "naughty": 1618,
      "hiding": 1619,
      "bring": 1620,
      "cho": 1621,
      "ilk": 1622,
      "spin": 1623,
      "teach": 1624,
      "cing": 1625,
      "ment": 1626,
      "cookie": 1627,
      "uni": 1628,
      "umpy": 1629,
      "fence": 1630,
      "vel": 1631,
      "chee": 1632,
      "pol": 1633,
      "bush": 1634,
      "lunch": 1635,
      "milk": 1636,
      "erful": 1637,
      "thinks": 1638,
      "eas": 1639,
      "pop": 1640,
      "ugly": 1641,
      "idge": 1642,
      "birthday": 1643,
      "nose": 1644,
      "Mama": 1645,
      "juice": 1646,
      "wand": 1647,
      "If": 1648,
      "vill": 1649,
      "wra": 1650,
      "grew": 1651,
      "belong": 1652,
      "shr": 1653,
      "pack": 1654,
      "answ": 1655,
      "touc": 1656,
      "shapes": 1657,
      "fused": 1658,
      "tea": 1659,
      "Momo": 1660,
      "creat": 1661,
      "Pe": 1662,
      "young": 1663,
      "val": 1664,
      "umber": 1665,
      "heart": 1666,
      "bench": 1667,
      "zoom": 1668,
      "irt": 1669,
      "street": 1670,
      "sharp": 1671,
      "bone": 1672,
      "late": 1673,
      "shy": 1674,
      "How": 1675,
      "ti": 1676,
      "sli": 1677,
      "believe": 1678,
      "bell": 1679,
      "Emma": 1680,
      "rocket": 1681,
      "buc": 1682,
      "bucket": 1683,
      "bread": 1684,
      "coin": 1685,
      "robot": 1686,
      "part": 1687,
      "pocket": 1688,
      "magical": 1689,
      "touched": 1690,
      "cal": 1691,
      "shook": 1692,
      "storm": 1693,
      "dirt": 1694,
      "slowly": 1695,
      "busy": 1696,
      "kitten": 1697,
      "cage": 1698,
      "twins": 1699,
      "shake": 1700,
      "cheered": 1701,
      "arrived": 1702,
      "feels": 1703,
      "elephant": 1704,
      "lemon": 1705,
      "seat": 1706,
      "craw": 1707,
      "neck": 1708,
      "carry": 1709,
      "trip": 1710,
      "village": 1711,
      "amazed": 1712,
      "few": 1713,
      "appeared": 1714,
      "loom": 1715,
      "taking": 1716,
      "fixed": 1717,
      "driver": 1718,
      "stories": 1719,
      "coll": 1720,
      "grumpy": 1721,
      "patient": 1722,
      "au": 1723,
      "nut": 1724,
      "blem": 1725,
      "problem": 1726,
      "dest": 1727,
      "bru": 1728,
      "urtle": 1729,
      "wheel": 1730,
      "Jim": 1731,
      "gy": 1732,
      "shad": 1733,
      "oose": 1734,
      "sounds": 1735,
      "dist": 1736,
      "rich": 1737,
      "gray": 1738,
      "wonderful": 1739,
      "hu": 1740,
      "hor": 1741,
      "mach": 1742,
      "irp": 1743,
      "rainbow": 1744,
      "Sure": 1745,
      "wash": 1746,
      "una": 1747,
      "towards": 1748,
      "huge": 1749,
      "sug": 1750,
      "gen": 1751,
      "spark": 1752,
      "rude": 1753,
      "Ro": 1754,
      "Ann": 1755,
      "des": 1756,
      "songs": 1757,
      "whistle": 1758,
      "comfortable": 1759,
      "cir": 1760,
      "era": 1761,
      "wide": 1762,
      "erly": 1763,
      "bled": 1764,
      "ring": 1765,
      "splash": 1766,
      "Remy": 1767,
      "string": 1768,
      "Later": 1769,
      "elly": 1770,
      "drive": 1771,
      "kin": 1772,
      "path": 1773,
      "suc": 1774,
      "treats": 1775,
      "bble": 1776,
      "meet": 1777,
      "Of": 1778,
      "iling": 1779,
      "upset": 1780,
      "holding": 1781,
      "cheese": 1782,
      "nee": 1783,
      "ade": 1784,
      "moon": 1785,
      "fold": 1786,
      "rad": 1787,
      "turtle": 1788,
      "att": 1789,
      "life": 1790,
      "seek": 1791,
      "worm": 1792,
      "wild": 1793,
      "grab": 1794,
      "hugs": 1795,
      "spoon": 1796,
      "step": 1797,
      "fighting": 1798,
      "clot": 1799,
      "pra": 1800,
      "sour": 1801,
      "ull": 1802,
      "bugs": 1803,
      "circle": 1804,
      "cloth": 1805,
      "jour": 1806,
      "peace": 1807,
      "puppy": 1808,
      "ney": 1809,
      "add": 1810,
      "Daddy": 1811,
      "smooth": 1812,
      "cer": 1813,
      "note": 1814,
      "joke": 1815,
      "noises": 1816,
      "jewel": 1817,
      "lucky": 1818,
      "honey": 1819,
      "smelly": 1820,
      "mist": 1821,
      "giant": 1822,
      "ntain": 1823,
      "ier": 1824,
      "sage": 1825,
      "landed": 1826,
      "Ollie": 1827,
      "Jill": 1828,
      "thin": 1829,
      "berries": 1830,
      "inv": 1831,
      "cave": 1832,
      "Cat": 1833,
      "jelly": 1834,
      "beak": 1835,
      "honest": 1836,
      "princess": 1837,
      "wing": 1838,
      "anan": 1839,
      "boss": 1840,
      "banan": 1841,
      "isa": 1842,
      "cannot": 1843,
      "rank": 1844,
      "missed": 1845,
      "ast": 1846,
      "Bu": 1847,
      "stars": 1848,
      "dogs": 1849,
      "sick": 1850,
      "suddenly": 1851,
      "uce": 1852,
      "Lisa": 1853,
      "cor": 1854,
      "oven": 1855,
      "roar": 1856,
      "drove": 1857,
      "bri": 1858,
      "ped": 1859,
      "war": 1860,
      "comes": 1861,
      "miss": 1862,
      "change": 1863,
      "bul": 1864,
      "foot": 1865,
      "resting": 1866,
      "snowman": 1867,
      "Ella": 1868,
      "line": 1869,
      "maybe": 1870,
      "tom": 1871,
      "instead": 1872,
      "wasn": 1873,
      "ek": 1874,
      "Hey": 1875,
      "taste": 1876,
      "coun": 1877,
      "body": 1878,
      "ducks": 1879,
      "bat": 1880,
      "lice": 1881,
      "across": 1882,
      "helpful": 1883,
      "ateful": 1884,
      "fancy": 1885,
      "With": 1886,
      "organ": 1887,
      "shine": 1888,
      "last": 1889,
      "adventures": 1890,
      "bought": 1891,
      "Grandma": 1892,
      "cross": 1893,
      "grateful": 1894,
      "scre": 1895,
      "berry": 1896,
      "organi": 1897,
      "glow": 1898,
      "Help": 1899,
      "eld": 1900,
      "ined": 1901,
      "Ducky": 1902,
      "slid": 1903,
      "confused": 1904,
      "healthy": 1905,
      "Chirp": 1906,
      "idy": 1907,
      "puzz": 1908,
      "pillow": 1909,
      "covered": 1910,
      "dish": 1911,
      "pract": 1912,
      "cop": 1913,
      "zoo": 1914,
      "erry": 1915,
      "working": 1916,
      "tie": 1917,
      "inte": 1918,
      "stepped": 1919,
      "nod": 1920,
      "sticks": 1921,
      "save": 1922,
      "quest": 1923,
      "oppy": 1924,
      "selfish": 1925,
      "ert": 1926,
      "forget": 1927,
      "team": 1928,
      "whole": 1929,
      "easy": 1930,
      "elderly": 1931,
      "hero": 1932,
      "hope": 1933,
      "Benny": 1934,
      "anyone": 1935,
      "watching": 1936,
      "pan": 1937,
      "pri": 1938,
      "messy": 1939,
      "Mary": 1940,
      "forgive": 1941,
      "shirt": 1942,
      "daddy": 1943,
      "takes": 1944,
      "ladder": 1945,
      "chased": 1946,
      "hang": 1947,
      "weak": 1948,
      "myster": 1949,
      "Chirpy": 1950,
      "write": 1951,
      "ming": 1952,
      "tape": 1953,
      "wolf": 1954,
      "clever": 1955,
      "legs": 1956,
      "den": 1957,
      "ship": 1958,
      "horse": 1959,
      "though": 1960,
      "shes": 1961,
      "feather": 1962,
      "longer": 1963,
      "ggy": 1964,
      "brush": 1965,
      "stret": 1966,
      "plants": 1967,
      "Here": 1968,
      "person": 1969,
      "pin": 1970,
      "tidy": 1971,
      "ye": 1972,
      "ider": 1973,
      "stair": 1974,
      "finish": 1975,
      "fing": 1976,
      "picy": 1977,
      "later": 1978,
      "pty": 1979,
      "along": 1980,
      "rag": 1981,
      "faces": 1982,
      "empty": 1983,
      "boot": 1984,
      "prote": 1985,
      "seemed": 1986,
      "chew": 1987,
      "sent": 1988,
      "cozy": 1989,
      "pretended": 1990,
      "cord": 1991,
      "bbles": 1992,
      "loves": 1993,
      "mer": 1994,
      "ions": 1995,
      "sleepy": 1996,
      "bounce": 1997,
      "hum": 1998,
      "stir": 1999,
      "act": 2000,
      "mir": 2001,
      "saved": 2002,
      "waiting": 2003,
      "spicy": 2004,
      "iting": 2005,
      "gest": 2006,
      "rubb": 2007,
      "chick": 2008,
      "return": 2009,
      "pillar": 2010,
      "?”": 2011,
      "Luna": 2012,
      "ained": 2013,
      "ually": 2014,
      "goat": 2015,
      "screamed": 2016,
      "fake": 2017,
      "pool": 2018,
      "vie": 2019,
      "ending": 2020,
      "ves": 2021,
      "jumping": 2022,
      "cart": 2023,
      "Doggy": 2024,
      "Bunny": 2025,
      "Stop": 2026,
      "such": 2027,
      "Bobby": 2028,
      "clouds": 2029,
      "interesting": 2030,
      "print": 2031,
      "wondered": 2032,
      "calm": 2033,
      "hin": 2034,
      "hello": 2035,
      "fruits": 2036,
      "mistake": 2037,
      "Are": 2038,
      "drank": 2039,
      "da": 2040,
      "ipp": 2041,
      "lift": 2042,
      "shout": 2043,
      "spray": 2044,
      "trouble": 2045,
      "cher": 2046,
      "eag": 2047,
      "erpillar": 2048,
      "plate": 2049,
      "caterpillar": 2050,
      "Jerry": 2051,
      "bossy": 2052,
      "norm": 2053,
      "ps": 2054,
      "issor": 2055,
      "stra": 2056,
      "tear": 2057,
      "match": 2058,
      "issors": 2059,
      "onto": 2060,
      "known": 2061,
      "Bird": 2062,
      "gather": 2063,
      "test": 2064,
      "chicken": 2065,
      "Mum": 2066,
      "coo": 2067,
      "kick": 2068,
      "number": 2069,
      "drew": 2070,
      "building": 2071,
      "scissors": 2072,
      "bridge": 2073,
      "swimming": 2074,
      "machine": 2075,
      "TV": 2076,
      "child": 2077,
      "hidden": 2078,
      "lebr": 2079,
      "celebr": 2080,
      "sheep": 2081,
      "gives": 2082,
      "normal": 2083,
      "io": 2084,
      "fron": 2085,
      "queen": 2086,
      "arms": 2087,
      "cape": 2088,
      "lovely": 2089,
      "cleaned": 2090,
      "explor": 2091,
      "furry": 2092,
      "crayons": 2093,
      "front": 2094,
      "Tiny": 2095,
      "glue": 2096,
      "mel": 2097,
      "spider": 2098,
      "zza": 2099,
      "penc": 2100,
      "Will": 2101,
      "law": 2102,
      "pointed": 2103,
      "sugar": 2104,
      "pencil": 2105,
      "van": 2106,
      "asha": 2107,
      "pray": 2108,
      "puts": 2109,
      "Where": 2110,
      "gun": 2111,
      "ned": 2112,
      "fear": 2113,
      "prince": 2114,
      "smelled": 2115,
      "search": 2116,
      "gate": 2117,
      "osa": 2118,
      "lex": 2119,
      "spla": 2120,
      "gently": 2121,
      "osaur": 2122,
      "Rex": 2123,
      "cri": 2124,
      "backyard": 2125,
      "dinosaur": 2126,
      "matter": 2127,
      "fil": 2128,
      "drum": 2129,
      "protect": 2130,
      "towel": 2131,
      "Andy": 2132,
      "ult": 2133,
      "smiling": 2134,
      "couch": 2135,
      "nearby": 2136,
      "ughter": 2137,
      "yelled": 2138,
      "pens": 2139,
      "daughter": 2140,
      "ashamed": 2141,
      "gust": 2142,
      "powerful": 2143,
      "places": 2144,
      "flag": 2145,
      "lamp": 2146,
      "wom": 2147,
      "colle": 2148,
      "ling": 2149,
      "aser": 2150,
      "carried": 2151,
      "large": 2152,
      "pizza": 2153,
      "woman": 2154,
      "bal": 2155,
      "gas": 2156,
      "ror": 2157,
      "neigh": 2158,
      "tele": 2159,
      "class": 2160,
      "trust": 2161,
      "glass": 2162,
      "Jenny": 2163,
      "journey": 2164,
      "jam": 2165,
      "true": 2166,
      "vous": 2167,
      "itter": 2168,
      "tries": 2169,
      "ignor": 2170,
      "jeep": 2171,
      "unique": 2172,
      "ato": 2173,
      "fright": 2174,
      "expens": 2175,
      "Sammy": 2176,
      "clear": 2177,
      "wearing": 2178,
      "expensive": 2179,
      "hur": 2180,
      "tomor": 2181,
      "respec": 2182,
      "goes": 2183,
      "tomorrow": 2184,
      "Bear": 2185,
      "Give": 2186,
      "dizzy": 2187,
      "mirror": 2188,
      "dig": 2189,
      "ness": 2190,
      "weird": 2191,
      "these": 2192,
      "raid": 2193,
      "Your": 2194,
      "dancing": 2195,
      "Me": 2196,
      "Zoom": 2197,
      "hing": 2198,
      "ado": 2199,
      "form": 2200,
      "pair": 2201,
      "afraid": 2202,
      "spring": 2203,
      "fli": 2204,
      "nothing": 2205,
      "eth": 2206,
      "rass": 2207,
      "tent": 2208,
      "poor": 2209,
      "barrass": 2210,
      "embarrass": 2211,
      "frightened": 2212,
      "blow": 2213,
      "cand": 2214,
      "andpa": 2215,
      "ress": 2216,
      "sol": 2217,
      "lazy": 2218,
      "ones": 2219,
      "jog": 2220,
      "toma": 2221,
      "tomato": 2222,
      "cred": 2223,
      "imag": 2224,
      "nervous": 2225,
      "success": 2226,
      "pay": 2227,
      "si": 2228,
      "icked": 2229,
      "puzzle": 2230,
      "splashed": 2231,
      "bake": 2232,
      "og": 2233,
      "unknown": 2234,
      "clay": 2235,
      "sco": 2236,
      "incred": 2237,
      "gold": 2238,
      "case": 2239,
      "decor": 2240,
      "impress": 2241,
      "wrap": 2242,
      "creative": 2243,
      "wha": 2244,
      "ina": 2245,
      "wake": 2246,
      "feet": 2247,
      "ventually": 2248,
      "Sometimes": 2249,
      "ute": 2250,
      "incredible": 2251,
      "lead": 2252,
      "sock": 2253,
      "clock": 2254,
      "sandwi": 2255,
      "sandwich": 2256,
      "swan": 2257,
      "teeth": 2258,
      "pace": 2259,
      "polite": 2260,
      "burn": 2261,
      "cap": 2262,
      "useful": 2263,
      "Mummy": 2264,
      "respect": 2265,
      "ual": 2266,
      "steak": 2267,
      "boring": 2268,
      "ich": 2269,
      "tu": 2270,
      "soap": 2271,
      "usual": 2272,
      "square": 2273,
      "straw": 2274,
      "Poppy": 2275,
      "fool": 2276,
      "closet": 2277,
      "mixed": 2278,
      "Tr": 2279,
      "ler": 2280,
      "pump": 2281,
      "potato": 2282,
      "knocked": 2283,
      "kiss": 2284,
      "peaceful": 2285,
      "sword": 2286,
      "famous": 2287,
      "mysterious": 2288,
      "whale": 2289,
      "bean": 2290,
      "upid": 2291,
      "chase": 2292,
      "yog": 2293,
      "sold": 2294,
      "robe": 2295,
      "shark": 2296,
      "answer": 2297,
      "Little": 2298,
      "rug": 2299,
      "ours": 2300,
      "cient": 2301,
      "kicked": 2302,
      "stupid": 2303,
      "feed": 2304,
      "measure": 2305,
      "wouldn": 2306,
      "whisper": 2307,
      "Who": 2308,
      "rough": 2309,
      "ancient": 2310,
      "snacks": 2311,
      "space": 2312,
      "relie": 2313,
      "breath": 2314,
      "corner": 2315,
      "noisy": 2316,
      "shoe": 2317,
      "ail": 2318,
      "scarf": 2319,
      "ustr": 2320,
      "Instead": 2321,
      "spread": 2322,
      "painted": 2323,
      "branches": 2324,
      "hose": 2325,
      "Emily": 2326,
      "chocol": 2327,
      "Br": 2328,
      "tun": 2329,
      "ugg": 2330,
      "march": 2331,
      "eggs": 2332,
      "stairs": 2333,
      "collect": 2334,
      "terri": 2335,
      "dead": 2336,
      "wagon": 2337,
      "paws": 2338,
      "dug": 2339,
      "gigg": 2340,
      "vide": 2341,
      "ero": 2342,
      "moms": 2343,
      "disgust": 2344,
      "frustr": 2345,
      "crown": 2346,
      "study": 2347,
      "melon": 2348,
      "barn": 2349,
      "ian": 2350,
      "owed": 2351,
      "umb": 2352,
      "Jimmy": 2353,
      "foolish": 2354,
      "enorm": 2355,
      "sell": 2356,
      "rare": 2357,
      "obed": 2358,
      "understood": 2359,
      "steal": 2360,
      "enormous": 2361,
      "scare": 2362,
      "salad": 2363,
      "stuff": 2364,
      "veget": 2365,
      "medic": 2366,
      "bald": 2367,
      "banana": 2368,
      "chocolate": 2369,
      "disgusting": 2370,
      "vegetable": 2371,
      "goose": 2372,
      "ighed": 2373,
      "locked": 2374,
      "rod": 2375,
      "shroom": 2376,
      "group": 2377,
      "shadow": 2378,
      "generous": 2379,
      "obedient": 2380,
      "medicine": 2381,
      "bitter": 2382,
      "ee": 2383,
      "est": 2384,
      "fic": 2385,
      "tig": 2386,
      "diffic": 2387,
      "difficult": 2388,
      "ife": 2389,
      "wis": 2390,
      "ity": 2391,
      "thick": 2392,
      "frustrated": 2393,
      "Lu": 2394,
      "roy": 2395,
      "smaller": 2396,
      "market": 2397,
      "Brown": 2398,
      "Sunny": 2399,
      "bark": 2400,
      "itar": 2401,
      "guitar": 2402,
      "tasted": 2403,
      "asses": 2404,
      "oop": 2405,
      "destroy": 2406,
      "sup": 2407,
      "toug": 2408,
      "asleep": 2409,
      "moving": 2410,
      "mountain": 2411,
      "bored": 2412,
      "mask": 2413,
      "nic": 2414,
      "zard": 2415,
      "orry": 2416,
      "which": 2417,
      "taught": 2418,
      "standing": 2419,
      "present": 2420,
      "Sorry": 2421,
      "horn": 2422,
      "harm": 2423,
      "iss": 2424,
      "stri": 2425,
      "become": 2426,
      "del": 2427,
      "Today": 2428,
      "relieved": 2429,
      "jung": 2430,
      "igin": 2431,
      "lace": 2432,
      "joined": 2433,
      "terrible": 2434,
      "tough": 2435,
      "lu": 2436,
      "alous": 2437,
      "asking": 2438,
      "pebble": 2439,
      "mushroom": 2440,
      "squash": 2441,
      "jealous": 2442,
      "exploring": 2443,
      "jungle": 2444,
      "aw": 2445,
      "fted": 2446,
      "parrot": 2447,
      "yourself": 2448,
      "knife": 2449,
      "iginal": 2450,
      "ipped": 2451,
      "unusual": 2452,
      "chang": 2453,
      "icro": 2454,
      "tem": 2455,
      "sport": 2456,
      "painting": 2457,
      "suit": 2458,
      "supp": 2459,
      "pumpkin": 2460,
      "dull": 2461,
      "soar": 2462,
      "spoiled": 2463,
      "prize": 2464,
      "cro": 2465,
      "fat": 2466,
      "iver": 2467,
      "ray": 2468,
      "twist": 2469,
      "eng": 2470,
      "lose": 2471,
      "guess": 2472,
      "glasses": 2473,
      "mighty": 2474,
      "popcorn": 2475,
      "nuts": 2476,
      "tiger": 2477,
      "fine": 2478,
      "pir": 2479,
      "ten": 2480,
      "thoughtful": 2481,
      "hears": 2482,
      "bulb": 2483,
      "screen": 2484,
      "sque": 2485,
      "hay": 2486,
      "ident": 2487,
      "original": 2488,
      "seal": 2489,
      "tool": 2490,
      "fier": 2491,
      "vase": 2492,
      "seeds": 2493,
      "fierce": 2494,
      "Many": 2495,
      "mark": 2496,
      "sca": 2497,
      "snee": 2498,
      "nes": 2499,
      "drawing": 2500,
      "record": 2501,
      "island": 2502,
      "order": 2503,
      "chest": 2504,
      "cheap": 2505,
      "coura": 2506,
      "thankful": 2507,
      "carrots": 2508,
      "Even": 2509,
      "umsy": 2510,
      "muff": 2511,
      "lown": 2512,
      "spent": 2513,
      "relax": 2514,
      "embarrassed": 2515,
      "aunt": 2516,
      "bloom": 2517,
      "clown": 2518,
      "micro": 2519,
      "dep": 2520,
      "knowing": 2521,
      "selves": 2522,
      "troubled": 2523,
      "uncomfortable": 2524,
      "hats": 2525,
      "cane": 2526,
      "finding": 2527,
      "sunflower": 2528,
      "shoot": 2529,
      "frown": 2530,
      "balance": 2531,
      "Ted": 2532,
      "avo": 2533,
      "pard": 2534,
      "compl": 2535,
      "neighbor": 2536,
      "cone": 2537,
      "oce": 2538,
      "stamp": 2539,
      "exam": 2540,
      "exciting": 2541,
      "irsty": 2542,
      "trick": 2543,
      "adventur": 2544,
      "ocean": 2545,
      "arrow": 2546,
      "ilt": 2547,
      "lifted": 2548,
      "catter": 2549,
      "acorn": 2550,
      "lexible": 2551,
      "scatter": 2552,
      "iness": 2553,
      "log": 2554,
      "clumsy": 2555,
      "brace": 2556,
      "Miss": 2557,
      "ular": 2558,
      "yal": 2559,
      "host": 2560,
      "nail": 2561,
      "angle": 2562,
      "cush": 2563,
      "crazy": 2564,
      "wrote": 2565,
      "hairy": 2566,
      "giving": 2567,
      "pasta": 2568,
      "adventurous": 2569,
      "loyal": 2570,
      "cats": 2571,
      "picks": 2572,
      "stubb": 2573,
      "necklace": 2574,
      "depend": 2575,
      "dge": 2576,
      "behave": 2577,
      "epend": 2578,
      "comb": 2579,
      "tells": 2580,
      "organized": 2581,
      "harmless": 2582,
      "bracelet": 2583,
      "stubborn": 2584,
      "gloom": 2585,
      "iant": 2586,
      "xious": 2587,
      "anxious": 2588,
      "amond": 2589,
      "urkey": 2590,
      "deliver": 2591,
      "searched": 2592,
      "Peter": 2593,
      "eager": 2594,
      "engine": 2595,
      "tti": 2596,
      "hel": 2597,
      "hetti": 2598,
      "aghetti": 2599,
      "motor": 2600,
      "clap": 2601,
      "diamond": 2602,
      "press": 2603,
      "jug": 2604,
      "rat": 2605,
      "remind": 2606,
      "velo": 2607,
      "weet": 2608,
      "independ": 2609,
      "crayon": 2610,
      "pal": 2611,
      "turkey": 2612,
      "atch": 2613,
      "playful": 2614,
      "thirsty": 2615,
      "agree": 2616,
      "practiced": 2617,
      "stretch": 2618,
      "dile": 2619,
      "frag": 2620,
      "tied": 2621,
      "env": 2622,
      "envelo": 2623,
      "bubbles": 2624,
      "mailbox": 2625,
      "gloomy": 2626,
      "independent": 2627,
      "Jake": 2628,
      "flexible": 2629,
      "raced": 2630,
      "illa": 2631,
      "boys": 2632,
      "codile": 2633,
      "yours": 2634,
      "using": 2635,
      "police": 2636,
      "spaghetti": 2637,
      "crack": 2638,
      "barber": 2639,
      "flash": 2640,
      "bathroom": 2641,
      "sil": 2642,
      "leo": 2643,
      "belt": 2644,
      "escape": 2645,
      "pear": 2646,
      "news": 2647,
      "deer": 2648,
      "guard": 2649,
      "passed": 2650,
      "dependable": 2651,
      "ghost": 2652,
      "lizard": 2653,
      "roof": 2654,
      "serve": 2655,
      "pige": 2656,
      "fragile": 2657,
      "leopard": 2658,
      "lid": 2659,
      "deaf": 2660,
      "pru": 2661,
      "jolly": 2662,
      "needs": 2663,
      "chess": 2664,
      "celebrate": 2665,
      "changed": 2666,
      "Ow": 2667,
      "St": 2668,
      "fig": 2669,
      "zip": 2670,
      "stat": 2671,
      "bees": 2672,
      "dove": 2673,
      "dolp": 2674,
      "cate": 2675,
      "stove": 2676,
      "wheat": 2677,
      "crawl": 2678,
      "bin": 2679,
      "cident": 2680,
      "raven": 2681,
      "attic": 2682,
      "brill": 2683,
      "crocodile": 2684,
      "hip": 2685,
      "pho": 2686,
      "yarn": 2687,
      "shows": 2688,
      "explained": 2689,
      "True": 2690,
      "brilliant": 2691,
      "weal": 2692,
      "nder": 2693,
      "picnic": 2694,
      "humble": 2695,
      "photo": 2696,
      "mill": 2697,
      "tory": 2698,
      "idd": 2699,
      "shiver": 2700,
      "map": 2701,
      "tricks": 2702,
      "crawled": 2703,
      "oured": 2704,
      "nel": 2705,
      "choose": 2706,
      "lap": 2707,
      "ignorant": 2708,
      "temple": 2709,
      "envelope": 2710,
      "cado": 2711,
      "res": 2712,
      "friendship": 2713,
      "sunglasses": 2714,
      "cheerful": 2715,
      "ruined": 2716,
      "frame": 2717,
      "balloons": 2718,
      "stones": 2719,
      "avocado": 2720,
      "ator": 2721,
      "hoop": 2722,
      "knee": 2723,
      "oc": 2724,
      "raft": 2725,
      "pepper": 2726,
      "bottom": 2727,
      "page": 2728,
      "built": 2729,
      "accident": 2730,
      "popular": 2731,
      "folder": 2732,
      "counted": 2733,
      "batter": 2734,
      "os": 2735,
      "pants": 2736,
      "rem": 2737,
      "rose": 2738,
      "delicate": 2739,
      "spotted": 2740,
      "waves": 2741,
      "helmet": 2742,
      "iddle": 2743,
      "toast": 2744,
      "igator": 2745,
      "sunshine": 2746,
      "spill": 2747,
      "triangle": 2748,
      "kissed": 2749,
      "Lulu": 2750,
      "envious": 2751,
      "middle": 2752,
      "sighed": 2753,
      "erable": 2754,
      "stage": 2755,
      "fee": 2756,
      "umpet": 2757,
      "coco": 2758,
      "careless": 2759,
      "trumpet": 2760,
      "cleaning": 2761,
      "louder": 2762,
      "ctive": 2763,
      "miserable": 2764,
      "harsh": 2765,
      "flies": 2766,
      "See": 2767,
      "ox": 2768,
      "rise": 2769,
      "ordin": 2770,
      "almost": 2771,
      "ased": 2772,
      "hopping": 2773,
      "serious": 2774,
      "finger": 2775,
      "impressive": 2776,
      "tunnel": 2777,
      "vegetables": 2778,
      "scale": 2779,
      "pigeon": 2780,
      "statue": 2781,
      "ordinary": 2782,
      "sailed": 2783,
      "offee": 2784,
      "attra": 2785,
      "alligator": 2786,
      "maze": 2787,
      "borrow": 2788,
      "reli": 2789,
      "seum": 2790,
      "nosy": 2791,
      "museum": 2792,
      "earth": 2793,
      "napkin": 2794,
      "sailor": 2795,
      "slipped": 2796,
      "figure": 2797,
      "usage": 2798,
      "washed": 2799,
      "sausage": 2800,
      "meant": 2801,
      "father": 2802,
      "runk": 2803,
      "post": 2804,
      "taken": 2805,
      "perform": 2806,
      "penny": 2807,
      "reliable": 2808,
      "Pet": 2809,
      "Sp": 2810,
      "cries": 2811,
      "coffee": 2812,
      "gor": 2813,
      "jac": 2814,
      "stum": 2815,
      "happiness": 2816,
      "movie": 2817,
      "hurts": 2818,
      "jellyfish": 2819,
      "attractive": 2820,
      "jacket": 2821,
      "gue": 2822,
      "knight": 2823,
      "witch": 2824,
      "gem": 2825,
      "walks": 2826,
      "shells": 2827,
      "radio": 2828,
      "filthy": 2829,
      "load": 2830,
      "licked": 2831,
      "web": 2832,
      "shore": 2833,
      "cushion": 2834,
      "wealthy": 2835,
      "cam": 2836,
      "gum": 2837,
      "verse": 2838,
      "forward": 2839,
      "peach": 2840,
      "boxes": 2841,
      "obile": 2842,
      "spit": 2843,
      "keeper": 2844,
      "judge": 2845,
      "belonged": 2846,
      "tomobile": 2847,
      "muffin": 2848,
      "Tweet": 2849,
      "cab": 2850,
      "fluffy": 2851,
      "hive": 2852,
      "lime": 2853,
      "port": 2854,
      "poured": 2855,
      "tag": 2856,
      "shade": 2857,
      "gorilla": 2858,
      "camera": 2859,
      "cabin": 2860,
      "regu": 2861,
      "llip": 2862,
      "lollip": 2863,
      "Dolly": 2864,
      "boats": 2865,
      "cupboard": 2866,
      "persist": 2867,
      "answered": 2868,
      "automobile": 2869,
      "whispered": 2870,
      "dolphin": 2871,
      "Pete": 2872,
      "regular": 2873,
      "lollipop": 2874,
      "ipper": 2875,
      "lean": 2876,
      "cob": 2877,
      "drawer": 2878,
      "desk": 2879,
      "nods": 2880,
      "Next": 2881,
      "dom": 2882,
      "four": 2883,
      "week": 2884,
      "mule": 2885,
      "gets": 2886,
      "create": 2887,
      "compet": 2888,
      "smoke": 2889,
      "repe": 2890,
      "saying": 2891,
      "lotion": 2892,
      "twig": 2893,
      "topus": 2894,
      "Johnny": 2895,
      "travel": 2896,
      "competit": 2897,
      "men": 2898,
      "repair": 2899,
      "uth": 2900,
      "chub": 2901,
      "houses": 2902,
      "quar": 2903,
      "inky": 2904,
      "arage": 2905,
      "stronger": 2906,
      "snif": 2907,
      "shrimp": 2908,
      "chubby": 2909,
      "garage": 2910,
      "wool": 2911,
      "wip": 2912,
      "libr": 2913,
      "alert": 2914,
      "lively": 2915,
      "invited": 2916,
      "returned": 2917,
      "fearful": 2918,
      "successful": 2919,
      "dough": 2920,
      "helpless": 2921,
      "grown": 2922,
      "mole": 2923,
      "showing": 2924,
      "nicely": 2925,
      "bubble": 2926,
      "needle": 2927,
      "essie": 2928,
      "distur": 2929,
      "support": 2930,
      "Li": 2931,
      "city": 2932,
      "ither": 2933,
      "yet": 2934,
      "sta": 2935,
      "helps": 2936,
      "umbre": 2937,
      "moder": 2938,
      "dreams": 2939,
      "rubbed": 2940,
      "solve": 2941,
      "persistent": 2942,
      "trunk": 2943,
      "uli": 2944,
      "anut": 2945,
      "thie": 2946,
      "club": 2947,
      "fridge": 2948,
      "Rose": 2949,
      "radish": 2950,
      "scoot": 2951,
      "squee": 2952,
      "Car": 2953,
      "send": 2954,
      "decide": 2955,
      "bedroom": 2956,
      "sleeping": 2957,
      "value": 2958,
      "cooked": 2959,
      "octopus": 2960,
      "modern": 2961,
      "Alice": 2962,
      "enny": 2963,
      "lood": 2964,
      "loudly": 2965,
      "bounced": 2966,
      "creature": 2967,
      "Rob": 2968,
      "dive": 2969,
      "lk": 2970,
      "sle": 2971,
      "tank": 2972,
      "otter": 2973,
      "uncle": 2974,
      "sort": 2975,
      "acce": 2976,
      "base": 2977,
      "speed": 2978,
      "speak": 2979,
      "wishes": 2980,
      "hipp": 2981,
      "lit": 2982,
      "eraser": 2983,
      "thunder": 2984,
      "learning": 2985,
      "truth": 2986,
      "split": 2987,
      "harder": 2988,
      "gym": 2989,
      "candle": 2990,
      "umbrella": 2991,
      "salt": 2992,
      "station": 2993,
      "cereal": 2994,
      "ador": 2995,
      "Buzz": 2996,
      "fis": 2997,
      "mop": 2998,
      "ham": 2999,
      "ony": 3000,
      "ilty": 3001,
      "rub": 3002,
      "chalk": 3003,
      "guilty": 3004,
      "power": 3005,
      "cherries": 3006,
      "Is": 3007,
      "azz": 3008,
      "fou": 3009,
      "jet": 3010,
      "mild": 3011,
      "oin": 3012,
      "vine": 3013,
      "iron": 3014,
      "biggest": 3015,
      "tern": 3016,
      "urse": 3017,
      "meal": 3018,
      "pointing": 3019,
      "powder": 3020,
      "polish": 3021,
      "wheels": 3022,
      "jewelry": 3023,
      "Teddy": 3024,
      "flashlight": 3025,
      "cocoa": 3026,
      "quarrel": 3027,
      "thief": 3028,
      "Boun": 3029,
      "grace": 3030,
      "knot": 3031,
      "sink": 3032,
      "ense": 3033,
      "atient": 3034,
      "lying": 3035,
      "cact": 3036,
      "cauli": 3037,
      "homes": 3038,
      "impatient": 3039,
      "affe": 3040,
      "passion": 3041,
      "adorable": 3042,
      "fountain": 3043,
      "Bye": 3044,
      "Kim": 3045,
      "carpet": 3046,
      "teas": 3047,
      "ears": 3048,
      "happening": 3049,
      "wrapped": 3050,
      "library": 3051,
      "staff": 3052,
      "cactus": 3053,
      "pit": 3054,
      "tic": 3055,
      "edge": 3056,
      "herb": 3057,
      "forth": 3058,
      "skipped": 3059,
      "office": 3060,
      "sweater": 3061,
      "pengu": 3062,
      "stream": 3063,
      "steps": 3064,
      "kne": 3065,
      "half": 3066,
      "bel": 3067,
      "weigh": 3068,
      "fork": 3069,
      "shield": 3070,
      "grandpa": 3071,
      "flute": 3072,
      "shrink": 3073,
      "courage": 3074,
      "fisher": 3075,
      "Tob": 3076,
      "isted": 3077,
      "handle": 3078,
      "comple": 3079,
      "rming": 3080,
      "charming": 3081,
      "ject": 3082,
      "whenever": 3083,
      "grapes": 3084,
      "hippo": 3085,
      "Toby": 3086,
      "mes": 3087,
      "washer": 3088,
      "packed": 3089,
      "skin": 3090,
      "tripped": 3091,
      "angel": 3092,
      "drop": 3093,
      "counting": 3094,
      "valu": 3095,
      "feathers": 3096,
      "cauliflower": 3097,
      "yach": 3098,
      "edy": 3099,
      "themselves": 3100,
      "knows": 3101,
      "marry": 3102,
      "eleva": 3103,
      "People": 3104,
      "design": 3105,
      "thinking": 3106,
      "strawberry": 3107,
      "complain": 3108,
      "sniff": 3109,
      "slept": 3110,
      "ticket": 3111,
      "yacht": 3112,
      "elevator": 3113,
      "eventually": 3114,
      "spun": 3115,
      "gifted": 3116,
      "dishwasher": 3117,
      "telephone": 3118,
      "competitive": 3119,
      "Sop": 3120,
      "lin": 3121,
      "intell": 3122,
      "excite": 3123,
      "skip": 3124,
      "appoin": 3125,
      "Zoomy": 3126,
      "Spike": 3127,
      "Soph": 3128,
      "intellig": 3129,
      "flea": 3130,
      "toe": 3131,
      "sauce": 3132,
      "chor": 3133,
      "deter": 3134,
      "quit": 3135,
      "tray": 3136,
      "towers": 3137,
      "compassion": 3138,
      "cube": 3139,
      "disappoin": 3140,
      "haircut": 3141,
      "tire": 3142,
      "gathered": 3143,
      "nurse": 3144,
      "pour": 3145,
      "anchor": 3146,
      "rill": 3147,
      "pole": 3148,
      "poem": 3149,
      "decorate": 3150,
      "giggled": 3151,
      "pirate": 3152,
      "aero": 3153,
      "waff": 3154,
      "ambul": 3155,
      "shape": 3156,
      "restless": 3157,
      "torn": 3158,
      "question": 3159,
      "cricket": 3160,
      "valuable": 3161,
      "ambulance": 3162,
      "numb": 3163,
      "yaw": 3164,
      "stal": 3165,
      "ates": 3166,
      "vest": 3167,
      "float": 3168,
      "barrel": 3169,
      "hotel": 3170,
      "whist": 3171,
      "buttons": 3172,
      "slides": 3173,
      "determin": 3174,
      "Bet": 3175,
      "Dan": 3176,
      "Pipp": 3177,
      "shut": 3178,
      "ache": 3179,
      "stranger": 3180,
      "Bill": 3181,
      "Did": 3182,
      "az": 3183,
      "either": 3184,
      "sight": 3185,
      "zipper": 3186,
      "celer": 3187,
      "unlock": 3188,
      "bull": 3189,
      "magnet": 3190,
      "trail": 3191,
      "pattern": 3192,
      "wife": 3193,
      "tears": 3194,
      "numbers": 3195,
      "celery": 3196,
      "Al": 3197,
      "mp": 3198,
      "ribb": 3199,
      "bushes": 3200,
      "comput": 3201,
      "laughs": 3202,
      "means": 3203,
      "spinning": 3204,
      "fisherman": 3205,
      "intelligent": 3206,
      "compassionate": 3207,
      "disappointed": 3208,
      "?\".": 3209,
      "model": 3210,
      "cardboard": 3211,
      "bananas": 3212,
      "hun": 3213,
      "ito": 3214,
      "mug": 3215,
      "rid": 3216,
      "lic": 3217,
      "hospit": 3218,
      "walls": 3219,
      "juicy": 3220,
      "bandage": 3221,
      "view": 3222,
      "soldier": 3223,
      "hospital": 3224,
      "curt": 3225,
      "mitten": 3226,
      "oil": 3227,
      "birdcage": 3228,
      "short": 3229,
      "aged": 3230,
      "squito": 3231,
      "brea": 3232,
      "added": 3233,
      "crib": 3234,
      "Sophie": 3235,
      "Wa": 3236,
      "pee": 3237,
      "trem": 3238,
      "spir": 3239,
      "safely": 3240,
      "lights": 3241,
      "spear": 3242,
      "distant": 3243,
      "succe": 3244,
      "Birdy": 3245,
      "silver": 3246,
      "curtain": 3247,
      "tho": 3248,
      "shel": 3249,
      "!\".": 3250,
      "goal": 3251,
      "mosquito": 3252,
      "trap": 3253,
      "cycle": 3254,
      "bikes": 3255,
      "spilled": 3256,
      "bump": 3257,
      "por": 3258,
      "tummy": 3259,
      "playground": 3260,
      "utes": 3261,
      "rode": 3262,
      "label": 3263,
      "coins": 3264,
      "costu": 3265,
      "Well": 3266,
      "pale": 3267,
      "painter": 3268,
      "medal": 3269,
      "dreamed": 3270,
      "purse": 3271,
      "questions": 3272,
      "yogurt": 3273,
      "wiped": 3274,
      "costume": 3275,
      "dust": 3276,
      "glove": 3277,
      "stack": 3278,
      "separ": 3279,
      "shocked": 3280,
      "pretending": 3281,
      "minutes": 3282,
      "knob": 3283,
      "erator": 3284,
      "rubber": 3285,
      "graceful": 3286,
      "aeroplane": 3287,
      "computer": 3288,
      "succeed": 3289,
      ",”": 3290,
      "fla": 3291,
      "ocer": 3292,
      "scr": 3293,
      "heli": 3294,
      "itself": 3295,
      "hall": 3296,
      "nament": 3297,
      "coal": 3298,
      "ately": 3299,
      "papers": 3300,
      "cheer": 3301,
      "falls": 3302,
      "collar": 3303,
      "copter": 3304,
      "hinocer": 3305,
      "motorcycle": 3306,
      "palace": 3307,
      "helicopter": 3308,
      "Would": 3309,
      "oak": 3310,
      "pun": 3311,
      "ornament": 3312,
      "igerator": 3313,
      "unk": 3314,
      "uel": 3315,
      "melt": 3316,
      "tap": 3317,
      "kindness": 3318,
      "crystal": 3319,
      "frigerator": 3320,
      "scooter": 3321,
      "Wait": 3322,
      "spirit": 3323,
      "hinoceros": 3324,
      "Pandy": 3325,
      "Snow": 3326,
      "adow": 3327,
      "gear": 3328,
      "uring": 3329,
      "parade": 3330,
      "golf": 3331,
      "fauce": 3332,
      "Mrs": 3333,
      "hunter": 3334,
      "license": 3335,
      "Sandy": 3336,
      "cli": 3337,
      "eye": 3338,
      "refrigerator": 3339,
      "eral": 3340,
      "leash": 3341,
      "hate": 3342,
      "urch": 3343,
      "giraffe": 3344,
      "modest": 3345,
      "Everywhere": 3346,
      "avail": 3347,
      "vision": 3348,
      "screw": 3349,
      "newspaper": 3350,
      "those": 3351,
      "faucet": 3352,
      "buck": 3353,
      "cable": 3354,
      "fre": 3355,
      "pine": 3356,
      "rhinoceros": 3357,
      "snap": 3358,
      "ofa": 3359,
      "ilot": 3360,
      "ugged": 3361,
      "novel": 3362,
      "makeup": 3363,
      "disappeared": 3364,
      "picking": 3365,
      "firework": 3366,
      "mattre": 3367,
      "brothers": 3368,
      "driving": 3369,
      "super": 3370,
      "baseball": 3371,
      "Ouch": 3372,
      "hook": 3373,
      "oat": 3374,
      "son": 3375,
      "sofa": 3376,
      "onion": 3377,
      "sect": 3378,
      "vet": 3379,
      "often": 3380,
      "axe": 3381,
      "swinging": 3382,
      "package": 3383,
      "television": 3384,
      "video": 3385,
      "complete": 3386,
      "available": 3387,
      "math": 3388,
      "ost": 3389,
      "church": 3390,
      "managed": 3391,
      "chain": 3392,
      "bags": 3393,
      "rolling": 3394,
      "cups": 3395,
      "Before": 3396,
      "lives": 3397,
      "spell": 3398,
      "tube": 3399,
      "determined": 3400,
      "may": 3401,
      "vend": 3402,
      "thus": 3403,
      "meadow": 3404,
      "vol": 3405,
      "disappear": 3406,
      "drawings": 3407,
      "taller": 3408,
      "cooler": 3409,
      "wire": 3410,
      "sparkly": 3411,
      "missile": 3412,
      "oxy": 3413,
      "cobweb": 3414,
      "porch": 3415,
      "vendor": 3416,
      "ckey": 3417,
      "arry": 3418,
      "alarm": 3419,
      "htub": 3420,
      "metal": 3421,
      "hockey": 3422,
      "stared": 3423,
      "growl": 3424,
      "explain": 3425,
      "climbing": 3426,
      "wardrobe": 3427,
      "diary": 3428,
      "basketball": 3429,
      "Buzzy": 3430,
      "bathtub": 3431,
      "penguin": 3432,
      "Bessie": 3433,
      "Ru": 3434,
      "Zip": 3435,
      "camp": 3436,
      "pilot": 3437,
      "enthus": 3438,
      "erc": 3439,
      "igloo": 3440,
      "rice": 3441,
      "thread": 3442,
      "veil": 3443,
      "already": 3444,
      "meat": 3445,
      "poon": 3446,
      "bookshelf": 3447,
      "mineral": 3448,
      "stretched": 3449,
      "cherry": 3450,
      "gasped": 3451,
      "hurry": 3452,
      "battery": 3453,
      "disturb": 3454,
      "Ellie": 3455,
      "apr": 3456,
      "lumber": 3457,
      "int": 3458,
      "insect": 3459,
      "reward": 3460,
      "isto": 3461,
      "root": 3462,
      "swung": 3463,
      "magaz": 3464,
      "gging": 3465,
      "dreaming": 3466,
      "grape": 3467,
      "bathe": 3468,
      "organize": 3469,
      "repeat": 3470,
      "aid": 3471,
      "bicy": 3472,
      "mummy": 3473,
      "reverse": 3474,
      "notice": 3475,
      "assport": 3476,
      "cano": 3477,
      "seem": 3478,
      "object": 3479,
      "stud": 3480,
      "microphone": 3481,
      "mattress": 3482,
      "istol": 3483,
      "bicycle": 3484,
      "Ho": 3485,
      "aked": 3486,
      "dess": 3487,
      "pistol": 3488,
      "tro": 3489,
      "ricane": 3490,
      "exerc": 3491,
      "sheet": 3492,
      "doors": 3493,
      "fog": 3494,
      "impro": 3495,
      "flame": 3496,
      "mustache": 3497,
      "realised": 3498,
      "blackboard": 3499,
      "cooking": 3500,
      "message": 3501,
      "Tina": 3502,
      "drain": 3503,
      "fought": 3504,
      "unpack": 3505,
      "ometer": 3506,
      "noon": 3507,
      "comet": 3508,
      "flour": 3509,
      "wallet": 3510,
      "winter": 3511,
      "network": 3512,
      "suggest": 3513,
      "jokes": 3514,
      "buckle": 3515,
      "troph": 3516,
      "cran": 3517,
      "peanut": 3518,
      "blin": 3519,
      "colour": 3520,
      "falling": 3521,
      "Lee": 3522,
      "pastry": 3523,
      "Lo": 3524,
      "Pau": 3525,
      "bent": 3526,
      "rake": 3527,
      "shamp": 3528,
      "sunset": 3529,
      "calling": 3530,
      "trucks": 3531,
      "castles": 3532,
      "beef": 3533,
      "wander": 3534,
      "attach": 3535,
      "hanging": 3536,
      "volcano": 3537,
      "trophy": 3538,
      "shampoo": 3539,
      "Big": 3540,
      "Elly": 3541,
      "Or": 3542,
      "ey": 3543,
      "hut": 3544,
      "tion": 3545,
      "ano": 3546,
      "stable": 3547,
      "neat": 3548,
      "cell": 3549,
      "weep": 3550,
      "poke": 3551,
      "spend": 3552,
      "piano": 3553,
      "practice": 3554,
      "pressed": 3555,
      "ostrich": 3556,
      "hours": 3557,
      "ni": 3558,
      "uage": 3559,
      "zag": 3560,
      "anguage": 3561,
      "bury": 3562,
      "sweetie": 3563,
      "trains": 3564,
      "human": 3565,
      "hammer": 3566,
      "shelter": 3567,
      "apron": 3568,
      "kang": 3569,
      "sne": 3570,
      "aroo": 3571,
      "stic": 3572,
      "bol": 3573,
      "ummer": 3574,
      "against": 3575,
      "blouse": 3576,
      "offered": 3577,
      "squirrels": 3578,
      "enjoying": 3579,
      "discovered": 3580,
      "track": 3581,
      "marched": 3582,
      "patch": 3583,
      "sym": 3584,
      "Betty": 3585,
      "crane": 3586,
      "kangaroo": 3587,
      "Mar": 3588,
      "ctory": 3589,
      "language": 3590,
      "passport": 3591,
      "igzag": 3592,
      "memor": 3593,
      "factory": 3594,
      "skirt": 3595,
      "skull": 3596,
      "early": 3597,
      "aky": 3598,
      "prunes": 3599,
      "magazine": 3600,
      "symbol": 3601,
      "fuel": 3602,
      "nation": 3603,
      "task": 3604,
      "These": 3605,
      "ature": 3606,
      "check": 3607,
      "listening": 3608,
      "frogs": 3609,
      "shovel": 3610,
      "holds": 3611,
      "bathrobe": 3612,
      "fingers": 3613,
      "teaspoon": 3614,
      "excitement": 3615,
      "peeked": 3616,
      "Jazz": 3617,
      "Su": 3618,
      "cco": 3619,
      "five": 3620,
      "nal": 3621,
      "once": 3622,
      "ured": 3623,
      "hedge": 3624,
      "iastic": 3625,
      "Grandpa": 3626,
      "journal": 3627,
      "accidentally": 3628,
      "enthusiastic": 3629,
      "dessert": 3630,
      "Paul": 3631,
      "junk": 3632,
      "oy": 3633,
      "sses": 3634,
      "theater": 3635,
      "restore": 3636,
      "leton": 3637,
      "sty": 3638,
      "keleton": 3639,
      "happier": 3640,
      "popped": 3641,
      "fastest": 3642,
      "struc": 3643,
      "opens": 3644,
      "telling": 3645,
      "football": 3646,
      "yoga": 3647,
      "Pippin": 3648,
      "Frog": 3649,
      "gran": 3650,
      "ium": 3651,
      "mometer": 3652,
      "skeleton": 3653,
      "allowed": 3654,
      "thermometer": 3655,
      "fort": 3656,
      "shaking": 3657,
      "ffic": 3658,
      "reading": 3659,
      "sity": 3660,
      "planes": 3661,
      "matches": 3662,
      "growing": 3663,
      "pipe": 3664,
      "zoomed": 3665,
      "Eventually": 3666,
      "dic": 3667,
      "vio": 3668,
      "distance": 3669,
      "Sun": 3670,
      "peek": 3671,
      "hanger": 3672,
      "pinch": 3673,
      "stumbled": 3674,
      "tionary": 3675,
      "dictionary": 3676,
      "Co": 3677,
      "Wigg": 3678,
      "ahead": 3679,
      "admi": 3680,
      "planet": 3681,
      "stirred": 3682,
      "film": 3683,
      "Bounce": 3684,
      "ribbon": 3685,
      "superhero": 3686,
      "admire": 3687,
      "Ste": 3688,
      "Whe": 3689,
      "fro": 3690,
      "toile": 3691,
      "chan": 3692,
      "helper": 3693,
      "surprises": 3694,
      "trash": 3695,
      "chasing": 3696,
      "stickers": 3697,
      "alive": 3698,
      "chose": 3699,
      "brick": 3700,
      "violin": 3701,
      "Pa": 3702,
      "ga": 3703,
      "pony": 3704,
      "sub": 3705,
      "ener": 3706,
      "arian": 3707,
      "undry": 3708,
      "rail": 3709,
      "poppy": 3710,
      "jumps": 3711,
      "stops": 3712,
      "lands": 3713,
      "astic": 3714,
      "bill": 3715,
      "cudd": 3716,
      "zer": 3717,
      "beep": 3718,
      "laundry": 3719,
      "discover": 3720,
      "doesn": 3721,
      "apon": 3722,
      "breakfast": 3723,
      "freezer": 3724,
      "circles": 3725,
      "respectful": 3726,
      "accept": 3727,
      "blinked": 3728,
      "Mag": 3729,
      "Sh": 3730,
      "grill": 3731,
      "ival": 3732,
      "laser": 3733,
      "summer": 3734,
      "tooth": 3735,
      "refused": 3736,
      "stival": 3737,
      "beet": 3738,
      "player": 3739,
      "festival": 3740,
      "switch": 3741,
      "leaving": 3742,
      "lions": 3743,
      "marble": 3744,
      "hurricane": 3745,
      "exercise": 3746,
      "toilet": 3747,
      "stad": 3748,
      "holid": 3749,
      "leak": 3750,
      "fireplace": 3751,
      "pleased": 3752,
      "cards": 3753,
      "searching": 3754,
      "cabinet": 3755,
      "waffle": 3756,
      "stadium": 3757,
      "holiday": 3758,
      "Have": 3759,
      "Lilly": 3760,
      "cur": 3761,
      "htray": 3762,
      "meowed": 3763,
      "twir": 3764,
      "rules": 3765,
      "airport": 3766,
      "spoke": 3767,
      "monkeys": 3768,
      "mint": 3769,
      "sneeze": 3770,
      "sniffed": 3771,
      "tip": 3772,
      "wic": 3773,
      "zor": 3774,
      "ended": 3775,
      "chim": 3776,
      "forgave": 3777,
      "ashtray": 3778,
      "razor": 3779,
      "clu": 3780,
      "favour": 3781,
      "sandwic": 3782,
      "traffic": 3783,
      "tightly": 3784,
      "lemons": 3785,
      "roared": 3786,
      "lawn": 3787,
      "oats": 3788,
      "sandwiches": 3789,
      "Un": 3790,
      "nature": 3791,
      "ince": 3792,
      "plastic": 3793,
      "unite": 3794,
      "caring": 3795,
      "mechan": 3796,
      "stomach": 3797,
      "finds": 3798,
      "anyway": 3799,
      "surf": 3800,
      "sticker": 3801,
      "display": 3802,
      "windows": 3803,
      "knock": 3804,
      "meeting": 3805,
      "boots": 3806,
      "resist": 3807,
      "separate": 3808,
      "chimney": 3809,
      "favourite": 3810,
      "mechanic": 3811,
      "Cl": 3812,
      "Mill": 3813,
      "Polly": 3814,
      "inde": 3815,
      "aced": 3816,
      "blueberry": 3817,
      "lightning": 3818,
      "barking": 3819,
      "prevent": 3820,
      "mixer": 3821,
      "cows": 3822,
      "grabs": 3823,
      "tomatoes": 3824,
      "imagine": 3825,
      "beetle": 3826,
      "Sus": 3827,
      "hic": 3828,
      "lend": 3829,
      "render": 3830,
      "vehic": 3831,
      "holes": 3832,
      "poked": 3833,
      "appl": 3834,
      "Read": 3835,
      "point": 3836,
      "minute": 3837,
      "letters": 3838,
      "belongs": 3839,
      "classroom": 3840,
      "subway": 3841,
      "billboard": 3842,
      "flood": 3843,
      "ience": 3844,
      "slap": 3845,
      "yield": 3846,
      "remove": 3847,
      "lect": 3848,
      "bove": 3849,
      "hter": 3850,
      "laughter": 3851,
      "handed": 3852,
      "kayak": 3853,
      "danger": 3854,
      "notebook": 3855,
      "invite": 3856,
      "mistakes": 3857,
      "oxygen": 3858,
      "oyster": 3859,
      "vy": 3860,
      "wine": 3861,
      "names": 3862,
      "carto": 3863,
      "chamber": 3864,
      "puddles": 3865,
      "musician": 3866,
      "country": 3867,
      "size": 3868,
      "scope": 3869,
      "remain": 3870,
      "leaned": 3871,
      "improve": 3872,
      "Papa": 3873,
      "bby": 3874,
      "ky": 3875,
      "sudden": 3876,
      "enter": 3877,
      "whip": 3878,
      "proudly": 3879,
      "bookcase": 3880,
      "swamp": 3881,
      "spoil": 3882,
      "problems": 3883,
      "warned": 3884,
      "glowing": 3885,
      "suppl": 3886,
      "Gig": 3887,
      "above": 3888,
      "vice": 3889,
      "inarian": 3890,
      "reg": 3891,
      "alley": 3892,
      "terinarian": 3893,
      "loop": 3894,
      "sadly": 3895,
      "pushes": 3896,
      "comm": 3897,
      "dancer": 3898,
      "pulls": 3899,
      "wipe": 3900,
      "ppery": 3901,
      "freeze": 3902,
      "lawy": 3903,
      "strawberries": 3904,
      "Gigi": 3905,
      "cted": 3906,
      "incre": 3907,
      "ination": 3908,
      "resc": 3909,
      "ison": 3910,
      "ceiling": 3911,
      "veterinarian": 3912,
      "soil": 3913,
      "copper": 3914,
      "navy": 3915,
      "trade": 3916,
      "rushed": 3917,
      "sandbox": 3918,
      "butterflies": 3919,
      "armchair": 3920,
      "slippery": 3921,
      "panic": 3922,
      "frowned": 3923,
      "pages": 3924,
      "cliff": 3925,
      "Wiggly": 3926,
      "rescue": 3927,
      "Under": 3928,
      "lab": 3929,
      "rece": 3930,
      "kinds": 3931,
      "keeping": 3932,
      "feelings": 3933,
      "Remember": 3934,
      "comfort": 3935,
      "Freddy": 3936,
      "tease": 3937,
      "carrying": 3938,
      "aud": 3939,
      "kneel": 3940,
      "ccoli": 3941,
      "Susie": 3942,
      "Penny": 3943,
      "dar": 3944,
      "gie": 3945,
      "heat": 3946,
      "weapon": 3947,
      "delay": 3948,
      "brightly": 3949,
      "ignore": 3950,
      "provide": 3951,
      "believed": 3952,
      "slip": 3953,
      "strip": 3954,
      "fresh": 3955,
      "introd": 3956,
      "energy": 3957,
      "applaud": 3958,
      "Bow": 3959,
      "Binky": 3960,
      "Mike": 3961,
      "Wed": 3962,
      "ki": 3963,
      "anda": 3964,
      "waste": 3965,
      "endar": 3966,
      "allow": 3967,
      "somewhere": 3968,
      "Because": 3969,
      "mailman": 3970,
      "God": 3971,
      "calendar": 3972,
      "shakes": 3973,
      "prayed": 3974,
      "tools": 3975,
      "Ready": 3976,
      "regret": 3977,
      "Wednes": 3978,
      "Che": 3979,
      "Not": 3980,
      "apo": 3981,
      "oh": 3982,
      "vroom": 3983,
      "inclu": 3984,
      "saving": 3985,
      "advice": 3986,
      "meas": 3987,
      "nobody": 3988,
      "older": 3989,
      "cakes": 3990,
      "rush": 3991,
      "sounded": 3992,
      "sandcastle": 3993,
      "warning": 3994,
      "reminded": 3995,
      "Wednesday": 3996,
      "Char": 3997,
      "imed": 3998,
      "raise": 3999,
      "anywhere": 4000,
      "rained": 4001,
      "Dog": 4002,
      "choice": 4003,
      "invit": 4004,
      "price": 4005,
      "mystery": 4006,
      "vehicle": 4007,
      "lawyer": 4008,
      "Shar": 4009,
      "Yuck": 4010,
      "gain": 4011,
      "mit": 4012,
      "tax": 4013,
      "zes": 4014,
      "reco": 4015,
      "shone": 4016,
      "starts": 4017,
      "dear": 4018,
      "rooms": 4019,
      "eaten": 4020,
      "surrender": 4021,
      "letting": 4022,
      "softly": 4023,
      "prints": 4024,
      "chairs": 4025,
      "breaks": 4026,
      "happens": 4027,
      "pedal": 4028,
      "crossed": 4029,
      "shouts": 4030,
      "imagined": 4031,
      "suggested": 4032,
      "colourful": 4033,
      "Lola": 4034,
      "Sur": 4035,
      "Yay": 4036,
      "aur": 4037,
      "gni": 4038,
      "mas": 4039,
      "pitch": 4040,
      "replace": 4041,
      "ores": 4042,
      "delight": 4043,
      "poison": 4044,
      "excitedly": 4045,
      "restaur": 4046,
      "smells": 4047,
      "chickens": 4048,
      "squeeze": 4049,
      "Maggie": 4050,
      "taxi": 4051,
      "recogni": 4052,
      "restaurant": 4053,
      "Ge": 4054,
      "Milly": 4055,
      "Spark": 4056,
      "file": 4057,
      "valley": 4058,
      "reinde": 4059,
      "orge": 4060,
      "expec": 4061,
      "ranch": 4062,
      "bling": 4063,
      "broccoli": 4064,
      "steam": 4065,
      "ations": 4066,
      "blowing": 4067,
      "uggled": 4068,
      "Coco": 4069,
      "George": 4070,
      "reindeer": 4071,
      "Dave": 4072,
      "Spe": 4073,
      "equ": 4074,
      "extra": 4075,
      "dishes": 4076,
      "zebra": 4077,
      "ighted": 4078,
      "microscope": 4079,
      "breathe": 4080,
      "Charlie": 4081,
      "Alex": 4082,
      "Grace": 4083,
      "Happ": 4084,
      "Sque": 4085,
      "Wel": 4086,
      "dare": 4087,
      "event": 4088,
      "tick": 4089,
      "reve": 4090,
      "cation": 4091,
      "capt": 4092,
      "spade": 4093,
      "blueberries": 4094,
      "prepare": 4095,
      "bouncing": 4096,
      "chewed": 4097,
      "barks": 4098,
      "delighted": 4099,
      "sneezed": 4100,
      "tornado": 4101,
      "Welcome": 4102,
      "reveal": 4103,
      "Hoppy": 4104,
      "James": 4105,
      "Watch": 4106,
      "gro": 4107,
      "scold": 4108,
      "argue": 4109,
      "image": 4110,
      "chance": 4111,
      "myself": 4112,
      "settle": 4113,
      "heads": 4114,
      "swee": 4115,
      "hoping": 4116,
      "tutor": 4117,
      "Carl": 4118,
      "riding": 4119,
      "Happy": 4120,
      "End": 4121,
      "Olive": 4122,
      "Qu": 4123,
      "Wo": 4124,
      "ase": 4125,
      "suff": 4126,
      "opera": 4127,
      "quiz": 4128,
      "content": 4129,
      "given": 4130,
      "shrugged": 4131,
      "Lizzy": 4132,
      "Millie": 4133,
      "exper": 4134,
      "weather": 4135,
      "chores": 4136,
      "asis": 4137,
      "fume": 4138,
      "skill": 4139,
      "evening": 4140,
      "cuss": 4141,
      "ipment": 4142,
      "discuss": 4143,
      "missing": 4144,
      "baking": 4145,
      "vacation": 4146,
      "mention": 4147,
      "counter": 4148,
      "burned": 4149,
      "giggle": 4150,
      "shivering": 4151,
      "massage": 4152,
      "equipment": 4153,
      "oasis": 4154,
      "permit": 4155,
      "fixing": 4156,
      "writing": 4157,
      "thanks": 4158,
      "pushing": 4159,
      "prune": 4160,
      "structure": 4161,
      "sla": 4162,
      "theart": 4163,
      "inking": 4164,
      "placed": 4165,
      "socks": 4166,
      "cared": 4167,
      "grand": 4168,
      "perfume": 4169,
      "afternoon": 4170,
      "hills": 4171,
      "spots": 4172,
      "throws": 4173,
      "throwing": 4174,
      "puzzles": 4175,
      "trusted": 4176,
      "yawned": 4177,
      "bumped": 4178,
      "Ruby": 4179,
      "\",": 4180,
      "hood": 4181,
      "luck": 4182,
      "mall": 4183,
      "ues": 4184,
      "below": 4185,
      "ason": 4186,
      "parts": 4187,
      "printed": 4188,
      "tracks": 4189,
      "insisted": 4190,
      "muscle": 4191,
      "coats": 4192,
      "beans": 4193,
      "punish": 4194,
      "Froggy": 4195,
      "captain": 4196,
      "sigh": 4197,
      "ana": 4198,
      "shower": 4199,
      "famil": 4200,
      "shoulder": 4201,
      "sticky": 4202,
      "following": 4203,
      "brighter": 4204,
      "claw": 4205,
      "pastel": 4206,
      "Snowy": 4207,
      "Squeaky": 4208,
      "sweetheart": 4209,
      "Pr": 4210,
      "bend": 4211,
      "panda": 4212,
      "recomm": 4213,
      "unhappy": 4214,
      "greedy": 4215,
      "teaching": 4216,
      "impressed": 4217,
      "apolo": 4218,
      "Sharing": 4219,
      "expect": 4220,
      "Speedy": 4221,
      "tour": 4222,
      "reck": 4223,
      "iest": 4224,
      "deeper": 4225,
      "uniform": 4226,
      "candles": 4227,
      "uggage": 4228,
      "Surpr": 4229,
      "Hen": 4230,
      "Kate": 4231,
      "Mandy": 4232,
      "Mitten": 4233,
      "Tilly": 4234,
      "luggage": 4235,
      "nce": 4236,
      "wigg": 4237,
      "yucky": 4238,
      "ating": 4239,
      "weight": 4240,
      "napped": 4241,
      "clapping": 4242,
      "score": 4243,
      "easily": 4244,
      "sparkled": 4245,
      "splashing": 4246,
      "sprayed": 4247,
      "tremble": 4248,
      "Whenever": 4249,
      "Henry": 4250,
      "sir": 4251,
      "tub": 4252,
      "racing": 4253,
      "petal": 4254,
      "ucked": 4255,
      "learnt": 4256,
      "checked": 4257,
      "steel": 4258,
      "follows": 4259,
      "lemonade": 4260,
      "ignored": 4261,
      "destroyed": 4262,
      "Steve": 4263,
      "Mittens": 4264,
      "Ju": 4265,
      "bang": 4266,
      "furn": 4267,
      "iture": 4268,
      "beha": 4269,
      "upstairs": 4270,
      "chirp": 4271,
      "buried": 4272,
      "second": 4273,
      "cheek": 4274,
      "worms": 4275,
      "vanished": 4276,
      "selling": 4277,
      "scattered": 4278,
      "apologi": 4279,
      "furniture": 4280,
      "Abby": 4281,
      "Fo": 4282,
      "Ki": 4283,
      "jail": 4284,
      "mand": 4285,
      "sting": 4286,
      "ween": 4287,
      "ents": 4288,
      "entered": 4289,
      "demand": 4290,
      "sorting": 4291,
      "creek": 4292,
      "between": 4293,
      "badly": 4294,
      "reef": 4295,
      "Finn": 4296,
      "served": 4297,
      "cutting": 4298,
      "streng": 4299,
      "jogged": 4300,
      "whistled": 4301,
      "Danny": 4302,
      "Kiki": 4303,
      "Ha": 4304,
      "awe": 4305,
      "heel": 4306,
      "rect": 4307,
      "ides": 4308,
      "ingred": 4309,
      "beg": 4310,
      "riage": 4311,
      "thumb": 4312,
      "lip": 4313,
      "laimed": 4314,
      "quite": 4315,
      "exclaimed": 4316,
      "paid": 4317,
      "crash": 4318,
      "hopes": 4319,
      "marriage": 4320,
      "points": 4321,
      "bricks": 4322,
      "warn": 4323,
      "style": 4324,
      "lecture": 4325,
      "supply": 4326,
      "Woof": 4327,
      "claws": 4328,
      "Surprise": 4329,
      "ingredient": 4330,
      "omed": 4331,
      "bother": 4332,
      "hurting": 4333,
      "climbs": 4334,
      "seats": 4335,
      "neighb": 4336,
      "scratch": 4337,
      "Clara": 4338,
      "grocer": 4339,
      "petals": 4340,
      "Follow": 4341,
      "strength": 4342,
      "Baby": 4343,
      "Nana": 4344,
      "Pat": 4345,
      "hon": 4346,
      "tug": 4347,
      "wink": 4348,
      "ys": 4349,
      "ines": 4350,
      "putting": 4351,
      "raining": 4352,
      "bears": 4353,
      "Bee": 4354,
      "shopkeeper": 4355,
      "menu": 4356,
      "grant": 4357,
      "invitation": 4358,
      "Boo": 4359,
      "Bop": 4360,
      "Pip": 4361,
      "Zara": 4362,
      "mired": 4363,
      "pted": 4364,
      "snail": 4365,
      "hest": 4366,
      "waving": 4367,
      "ery": 4368,
      "versity": 4369,
      "admired": 4370,
      "starting": 4371,
      "Finny": 4372,
      "works": 4373,
      "printer": 4374,
      "wags": 4375,
      "forgotten": 4376,
      "pigs": 4377,
      "university": 4378,
      "explored": 4379,
      "Owl": 4380,
      "ingredients": 4381,
      "apart": 4382,
      "blood": 4383,
      "daisy": 4384,
      "ially": 4385,
      "wreck": 4386,
      "plates": 4387,
      "espec": 4388,
      "observe": 4389,
      "jogging": 4390,
      "twisted": 4391,
      "rested": 4392,
      "difference": 4393,
      "drops": 4394,
      "fallen": 4395,
      "further": 4396,
      "shined": 4397,
      "sailing": 4398,
      "washing": 4399,
      "eagerly": 4400,
      "balan": 4401,
      "Suzy": 4402,
      "introduce": 4403,
      "Kat": 4404,
      "Mo": 4405,
      "ccer": 4406,
      "during": 4407,
      "pup": 4408,
      "tuna": 4409,
      "bey": 4410,
      "soccer": 4411,
      "urge": 4412,
      "acted": 4413,
      "floated": 4414,
      "dressed": 4415,
      "planted": 4416,
      "gling": 4417,
      "folded": 4418,
      "strike": 4419,
      "First": 4420,
      "Out": 4421,
      "atched": 4422,
      "plays": 4423,
      "chy": 4424,
      "worth": 4425,
      "quake": 4426,
      "buzz": 4427,
      "highest": 4428,
      "beauty": 4429,
      "moves": 4430,
      "wandered": 4431,
      "horses": 4432,
      "Rock": 4433,
      "Bubbles": 4434,
      "yawn": 4435,
      "flapped": 4436,
      "studied": 4437,
      "increase": 4438,
      "especially": 4439,
      "..": 4440,
      "Harry": 4441,
      "Ray": 4442,
      "Tues": 4443,
      "request": 4444,
      "atta": 4445,
      "kingdom": 4446,
      "watered": 4447,
      "Everything": 4448,
      "Toto": 4449,
      "reaches": 4450,
      "mission": 4451,
      "shouting": 4452,
      "solved": 4453,
      "presents": 4454,
      "examine": 4455,
      "bab": 4456,
      "bak": 4457,
      "iately": 4458,
      "snapped": 4459,
      "eration": 4460,
      "argu": 4461,
      "llen": 4462,
      "west": 4463,
      "soak": 4464,
      "operation": 4465,
      "brings": 4466,
      "sorts": 4467,
      "Thanks": 4468,
      "sett": 4469,
      "mediately": 4470,
      "quietly": 4471,
      "gifts": 4472,
      "harbor": 4473,
      "elephants": 4474,
      "earthquake": 4475,
      "scolded": 4476,
      "slapped": 4477,
      "recommend": 4478,
      "neighbour": 4479,
      "Ava": 4480,
      "Ke": 4481,
      "ding": 4482,
      "sits": 4483,
      "vi": 4484,
      "zero": 4485,
      "zigzag": 4486,
      "lick": 4487,
      "hadn": 4488,
      "choo": 4489,
      "shot": 4490,
      "hearts": 4491,
      "tongue": 4492,
      "Hope": 4493,
      "curled": 4494,
      "experience": 4495,
      "omeday": 4496,
      "Jess": 4497,
      "rec": 4498,
      "encourage": 4499,
      "sew": 4500,
      "ddy": 4501,
      "sterday": 4502,
      "mister": 4503,
      "trave": 4504,
      "planned": 4505,
      "oranges": 4506,
      "kisses": 4507,
      "Goodbye": 4508,
      "sliding": 4509,
      "wisdom": 4510,
      "couraged": 4511,
      "memory": 4512,
      "Tuesday": 4513,
      "Wally": 4514,
      "mm": 4515,
      "mama": 4516,
      "someday": 4517,
      "tide": 4518,
      "toes": 4519,
      "beam": 4520,
      "licks": 4521,
      "fortun": 4522,
      "worse": 4523,
      "paused": 4524,
      "aches": 4525,
      "dresses": 4526,
      "ruler": 4527,
      "fields": 4528,
      "bouncy": 4529,
      "sizes": 4530,
      "stuffed": 4531,
      "squeezed": 4532,
      "suffer": 4533,
      "skills": 4534,
      "attached": 4535,
      "Slow": 4536,
      "Sky": 4537,
      "since": 4538,
      "release": 4539,
      "resu": 4540,
      "boo": 4541,
      "ideas": 4542,
      "manage": 4543,
      "sorted": 4544,
      "colours": 4545,
      "catching": 4546,
      "pulling": 4547,
      "imagination": 4548,
      "Robby": 4549,
      "accepted": 4550,
      "Katie": 4551,
      "result": 4552,
      "Gre": 4553,
      "King": 4554,
      "Red": 4555,
      "bones": 4556,
      "dried": 4557,
      "mice": 4558,
      "tore": 4559,
      "tonight": 4560,
      "immediately": 4561,
      "aded": 4562,
      "ention": 4563,
      "peaches": 4564,
      "sunrise": 4565,
      "comed": 4566,
      "reeze": 4567,
      "welcomed": 4568,
      "winning": 4569,
      "prepar": 4570,
      "blankets": 4571,
      "attention": 4572,
      "zookeeper": 4573,
      "pearl": 4574,
      "Liz": 4575,
      "twirled": 4576,
      "measured": 4577,
      "Fox": 4578,
      "Mel": 4579,
      "Sm": 4580,
      "Ye": 4581,
      "Zo": 4582,
      "Zigzag": 4583,
      "ire": 4584,
      "tucked": 4585,
      "zipped": 4586,
      "wagging": 4587,
      "sters": 4588,
      "season": 4589,
      "ups": 4590,
      "indy": 4591,
      "rang": 4592,
      "quack": 4593,
      "acked": 4594,
      "leather": 4595,
      "spike": 4596,
      "rabbits": 4597,
      "calls": 4598,
      "disagree": 4599,
      "closely": 4600,
      "Joey": 4601,
      "celebrated": 4602,
      "melted": 4603,
      "Stay": 4604,
      "whistling": 4605,
      "growled": 4606,
      "peanuts": 4607,
      "settled": 4608,
      "Ex": 4609,
      "May": 4610,
      "aking": 4611,
      "hy": 4612,
      "exit": 4613,
      "downstairs": 4614,
      "fari": 4615,
      "disagreed": 4616,
      "fireman": 4617,
      "married": 4618,
      "tastes": 4619,
      "emer": 4620,
      "baked": 4621,
      "Chick": 4622,
      "Annie": 4623,
      "stealing": 4624,
      "remained": 4625,
      "Maria": 4626,
      "receive": 4627,
      "recognize": 4628,
      "grocery": 4629,
      "Each": 4630,
      "Frank": 4631,
      "gloves": 4632,
      "tch": 4633,
      "ising": 4634,
      "safari": 4635,
      "lips": 4636,
      "soaked": 4637,
      "napping": 4638,
      "surround": 4639,
      "lets": 4640,
      "perfor": 4641,
      "Josh": 4642,
      "snuggled": 4643,
      "wooden": 4644,
      "understanding": 4645,
      "easier": 4646,
      "stirring": 4647,
      "palm": 4648,
      "punished": 4649,
      "memories": 4650,
      "reci": 4651,
      "fortunately": 4652,
      "Both": 4653,
      "Hop": 4654,
      "hits": 4655,
      "encouraged": 4656,
      "isn": 4657,
      "thm": 4658,
      "backpack": 4659,
      "seeing": 4660,
      "universe": 4661,
      "straight": 4662,
      "potatoes": 4663,
      "collection": 4664,
      "creatures": 4665,
      "breaking": 4666,
      "include": 4667,
      "hythm": 4668,
      "Dav": 4669,
      "For": 4670,
      "Ok": 4671,
      "Tony": 4672,
      "Wis": 4673,
      "brain": 4674,
      "lung": 4675,
      "waits": 4676,
      "raised": 4677,
      "sidewalk": 4678,
      "grin": 4679,
      "offer": 4680,
      "flat": 4681,
      "ringing": 4682,
      "pirates": 4683,
      "acorns": 4684,
      "floating": 4685,
      "trembling": 4686,
      "gazed": 4687,
      "Smith": 4688,
      "Sad": 4689,
      "fant": 4690,
      "wob": 4691,
      "hers": 4692,
      "unlocked": 4693,
      "alright": 4694,
      "ooped": 4695,
      "pebbles": 4696,
      "girls": 4697,
      "icing": 4698,
      "appro": 4699,
      "shouldn": 4700,
      "kites": 4701,
      "shopping": 4702,
      "bites": 4703,
      "Something": 4704,
      "crawling": 4705,
      "kicking": 4706,
      "relaxed": 4707,
      "Always": 4708,
      "fireworks": 4709,
      "Unfortunately": 4710,
      "muscles": 4711,
      "babies": 4712,
      "Wisdom": 4713,
      "Cindy": 4714,
      "Our": 4715,
      "crun": 4716,
      "sie": 4717,
      "unic": 4718,
      "underground": 4719,
      "watches": 4720,
      "bleed": 4721,
      "matched": 4722,
      "igging": 4723,
      "Rosie": 4724,
      "vanish": 4725,
      "Bouncy": 4726,
      "cartoon": 4727,
      "dared": 4728,
      "families": 4729,
      "unicorn": 4730,
      "Lucky": 4731,
      "Yum": 4732,
      "breeze": 4733,
      "digging": 4734,
      "kitty": 4735,
      "kins": 4736,
      "none": 4737,
      "sip": 4738,
      "opin": 4739,
      "chewing": 4740,
      "beds": 4741,
      "safety": 4742,
      "keeps": 4743,
      "tallest": 4744,
      "petted": 4745,
      "drinking": 4746,
      "mouths": 4747,
      "visited": 4748,
      "uggle": 4749,
      "shadows": 4750,
      "sneak": 4751,
      "kneeled": 4752,
      "Bug": 4753,
      "Fish": 4754,
      "Pinky": 4755,
      "bers": 4756,
      "ging": 4757,
      "ipping": 4758,
      "lined": 4759,
      "mbers": 4760,
      "olive": 4761,
      "stitch": 4762,
      "playtime": 4763,
      "weighed": 4764,
      "members": 4765,
      "laid": 4766,
      "muddy": 4767,
      "amaze": 4768,
      "setting": 4769,
      "roads": 4770,
      "piles": 4771,
      "velvet": 4772,
      "studying": 4773,
      "ordered": 4774,
      "silence": 4775,
      "weeping": 4776,
      "cartoons": 4777,
      "amazement": 4778,
      "!'": 4779,
      "Bree": 4780,
      "Friend": 4781,
      "Get": 4782,
      "Mon": 4783,
      "gers": 4784,
      "hi": 4785,
      "ids": 4786,
      "Time": 4787,
      "boom": 4788,
      "!\",": 4789,
      "meow": 4790,
      "costum": 4791,
      "nowhere": 4792,
      "poss": 4793,
      "twink": 4794,
      "appreci": 4795,
      "challen": 4796,
      "writ": 4797,
      "winner": 4798,
      "spoons": 4799,
      "mixing": 4800,
      "signs": 4801,
      "treasures": 4802,
      "repeated": 4803,
      "roots": 4804,
      "Sunday": 4805,
      "landscape": 4806,
      "Keep": 4807,
      "emergen": 4808,
      "David": 4809,
      "costumes": 4810,
      ".'": 4811,
      "Mor": 4812,
      "Spl": 4813,
      "jazz": 4814,
      "rs": 4815,
      "rhythm": 4816,
      "happiest": 4817,
      "esca": 4818,
      "urged": 4819,
      "importance": 4820,
      "voices": 4821,
      "pets": 4822,
      "sisters": 4823,
      "perfectly": 4824,
      "Peanut": 4825,
      "pinched": 4826,
      "six": 4827,
      "decorated": 4828,
      "decorations": 4829,
      "sausages": 4830,
      "prepared": 4831,
      "challenge": 4832,
      "fash": 4833,
      "lily": 4834,
      "nie": 4835,
      "rr": 4836,
      "zen": 4837,
      "infant": 4838,
      "waist": 4839,
      "beard": 4840,
      "draws": 4841,
      "Beep": 4842,
      "Someone": 4843,
      "clearing": 4844,
      "guessed": 4845,
      "agreement": 4846,
      "knights": 4847,
      "patterns": 4848,
      "mentioned": 4849,
      "behaved": 4850,
      "Zoe": 4851,
      "crunchy": 4852,
      "Moral": 4853,
      "fashion": 4854,
      "Cra": 4855,
      "ded": 4856,
      "sen": 4857,
      "xy": 4858,
      "ena": 4859,
      "irts": 4860,
      "history": 4861,
      "thrill": 4862,
      "admir": 4863,
      "uses": 4864,
      "ourselves": 4865,
      "turning": 4866,
      "moments": 4867,
      "strangers": 4868,
      "prov": 4869,
      "sprink": 4870,
      "eagle": 4871,
      "hurried": 4872,
      "marks": 4873,
      "poems": 4874,
      "waffles": 4875,
      "Rocky": 4876,
      "possible": 4877,
      "Splash": 4878,
      "escaped": 4879,
      "Dare": 4880,
      "Jessie": 4881,
      "Like": 4882,
      "fy": 4883,
      "iers": 4884,
      "obey": 4885,
      "inch": 4886,
      "ities": 4887,
      "beat": 4888,
      "ripped": 4889,
      "expected": 4890,
      "fetch": 4891,
      "peel": 4892,
      "spending": 4893,
      "untie": 4894,
      "ruin": 4895,
      "bravely": 4896,
      "crashed": 4897,
      "bowed": 4898,
      "threat": 4899,
      "direct": 4900,
      "laying": 4901,
      "Catty": 4902,
      "pillows": 4903,
      "soldiers": 4904,
      "logs": 4905,
      "limes": 4906,
      "disturbed": 4907,
      "lines": 4908,
      "goals": 4909,
      "frozen": 4910,
      "cuddled": 4911,
      "apologized": 4912,
      "grinned": 4913,
      "emergency": 4914,
      "Cudd": 4915,
      "Din": 4916,
      "Izzy": 4917,
      "Ja": 4918,
      "Lou": 4919,
      "flap": 4920,
      "gained": 4921,
      "refu": 4922,
      "resp": 4923,
      "ishes": 4924,
      "rip": 4925,
      "ppers": 4926,
      "Its": 4927,
      "antly": 4928,
      "eath": 4929,
      "dads": 4930,
      "fishing": 4931,
      "ached": 4932,
      "struggle": 4933,
      "alien": 4934,
      "beneath": 4935,
      "matching": 4936,
      "collecting": 4937,
      "photos": 4938,
      "knelt": 4939,
      "Cuddles": 4940,
      "Jacob": 4941,
      "Fl": 4942,
      "Henny": 4943,
      "Squ": 4944,
      "ef": 4945,
      "pies": 4946,
      "padd": 4947,
      "tim": 4948,
      "text": 4949,
      "wed": 4950,
      "hesit": 4951,
      "omas": 4952,
      "lier": 4953,
      "sore": 4954,
      "ropes": 4955,
      "item": 4956,
      "skipping": 4957,
      "Thomas": 4958,
      "warmth": 4959,
      "trapped": 4960,
      "wondering": 4961,
      "buildings": 4962,
      "dragons": 4963,
      "drinks": 4964,
      "answers": 4965,
      "slice": 4966,
      "bridges": 4967,
      "collected": 4968,
      "burning": 4969,
      "soared": 4970,
      "stamps": 4971,
      "Stitch": 4972,
      "Quick": 4973,
      "begged": 4974,
      "Exc": 4975,
      "texture": 4976,
      "Duck": 4977,
      "Kids": 4978,
      "Lena": 4979,
      "die": 4980,
      "olives": 4981,
      "simp": 4982,
      "ud": 4983,
      "resto": 4984,
      "nets": 4985,
      "lied": 4986,
      "ago": 4987,
      "owned": 4988,
      "scaring": 4989,
      "kindly": 4990,
      "crow": 4991,
      "Being": 4992,
      "crabs": 4993,
      "screams": 4994,
      "praised": 4995,
      "copy": 4996,
      "Missile": 4997,
      "scratched": 4998,
      "wiggle": 4999,
      "approached": 5000,
      "opinion": 5001,
      "simple": 5002,
      "Bad": 5003,
      "Hold": 5004,
      "List": 5005,
      "Mmm": 5006,
      "Put": 5007,
      "Those": 5008,
      "cough": 5009,
      "east": 5010,
      "iti": 5011,
      "rac": 5012,
      "theirs": 5013,
      "ica": 5014,
      "blink": 5015,
      "comfy": 5016,
      "wonders": 5017,
      "Behind": 5018,
      "scrubbed": 5019,
      "brushed": 5020,
      "sparkling": 5021,
      "gathering": 5022,
      "golden": 5023,
      "neighborhood": 5024,
      "twigs": 5025,
      "teasing": 5026,
      "Sparky": 5027,
      "Listen": 5028,
      "Gina": 5029,
      "Rover": 5030,
      "Titi": 5031,
      "broom": 5032,
      "fed": 5033,
      "fer": 5034,
      "mare": 5035,
      "invest": 5036,
      "remembers": 5037,
      "stro": 5038,
      "smar": 5039,
      "joking": 5040,
      "strings": 5041,
      "comp": 5042,
      "slim": 5043,
      "shoulders": 5044,
      "cub": 5045,
      "nightmare": 5046,
      "ladybug": 5047,
      "Leave": 5048,
      "Really": 5049,
      "teaches": 5050,
      "muffins": 5051,
      "herbs": 5052,
      "Marie": 5053,
      "granted": 5054,
      "gaze": 5055,
      "beamed": 5056,
      "Chicky": 5057,
      "investig": 5058,
      "By": 5059,
      "Barry": 5060,
      "Ti": 5061,
      "Tuna": 5062,
      "dot": 5063,
      "ived": 5064,
      "rum": 5065,
      "ury": 5066,
      "hissed": 5067,
      "loose": 5068,
      "urry": 5069,
      "doggy": 5070,
      "eats": 5071,
      "grey": 5072,
      "acti": 5073,
      "created": 5074,
      "twin": 5075,
      "hardly": 5076,
      "Dodo": 5077,
      "headed": 5078,
      "shock": 5079,
      "tails": 5080,
      "othing": 5081,
      "Gogo": 5082,
      "zooming": 5083,
      "parties": 5084,
      "trips": 5085,
      "brushes": 5086,
      "sparkle": 5087,
      "roaring": 5088,
      "glowed": 5089,
      "pencils": 5090,
      "marching": 5091,
      "recorded": 5092,
      "rescu": 5093,
      "avocados": 5094,
      "cubes": 5095,
      "melting": 5096,
      "sneaked": 5097,
      "received": 5098,
      "pedals": 5099,
      "Prin": 5100,
      "argued": 5101,
      "Slowly": 5102,
      "writes": 5103,
      "thrilled": 5104,
      "Dino": 5105,
      "slimy": 5106,
      "investigate": 5107,
      "activ": 5108,
      "Kay": 5109,
      "Po": 5110,
      "Vel": 5111,
      "ah": 5112,
      "dam": 5113,
      "osed": 5114,
      "tugged": 5115,
      "xury": 5116,
      "ren": 5117,
      "removed": 5118,
      "loving": 5119,
      "utter": 5120,
      "youth": 5121,
      "area": 5122,
      "pots": 5123,
      "ifi": 5124,
      "decides": 5125,
      "master": 5126,
      "stron": 5127,
      "faraway": 5128,
      "sled": 5129,
      "sticking": 5130,
      "steep": 5131,
      "cuts": 5132,
      "sweeties": 5133,
      "wears": 5134,
      "healed": 5135,
      "screaming": 5136,
      "destination": 5137,
      "radishes": 5138,
      "jewels": 5139,
      "leader": 5140,
      "Luke": 5141,
      "mountains": 5142,
      "nicer": 5143,
      "supposed": 5144,
      "stretching": 5145,
      "remote": 5146,
      "guest": 5147,
      "cheering": 5148,
      "students": 5149,
      "marbles": 5150,
      "Julie": 5151,
      "chirped": 5152,
      "balancing": 5153,
      "traveled": 5154,
      "Friends": 5155,
      "Velvet": 5156,
      "Ba": 5157,
      "De": 5158,
      "Ele": 5159,
      "Moon": 5160,
      "Spr": 5161,
      "Want": 5162,
      "bank": 5163,
      "cin": 5164,
      "hitting": 5165,
      "”.": 5166,
      "loe": 5167,
      "hated": 5168,
      "parked": 5169,
      "faced": 5170,
      "staying": 5171,
      "monsters": 5172,
      "yelling": 5173,
      "tricked": 5174,
      "claps": 5175,
      "situ": 5176,
      "glitter": 5177,
      "realize": 5178,
      "snakes": 5179,
      "Chloe": 5180,
      "polished": 5181,
      "buckets": 5182,
      "deser": 5183,
      "praying": 5184,
      "stripes": 5185,
      "delivered": 5186,
      "Robert": 5187,
      "Shh": 5188,
      "revealed": 5189,
      "Ally": 5190,
      "Ear": 5191,
      "Gir": 5192,
      "Mi": 5193,
      "Nick": 5194,
      "Rab": 5195,
      "Sha": 5196,
      "Water": 5197,
      "dies": 5198,
      "ris": 5199,
      "rings": 5200,
      "safer": 5201,
      "beside": 5202,
      "seag": 5203,
      "united": 5204,
      "mane": 5205,
      "acting": 5206,
      "crew": 5207,
      "Everyday": 5208,
      "wherever": 5209,
      "permission": 5210,
      "earlier": 5211,
      "offic": 5212,
      "opening": 5213,
      "ips": 5214,
      "phant": 5215,
      "continue": 5216,
      "secrets": 5217,
      "Meow": 5218,
      "luxury": 5219,
      "complaining": 5220,
      "giraffes": 5221,
      "seems": 5222,
      "measuring": 5223,
      "tickle": 5224,
      "bakery": 5225,
      "provided": 5226,
      "Spring": 5227,
      "Earth": 5228,
      "seagull": 5229,
      "'.": 5230,
      "Achoo": 5231,
      "Fifi": 5232,
      "Lina": 5233,
      "Lenny": 5234,
      "Nothing": 5235,
      "Oxy": 5236,
      "bare": 5237,
      "mies": 5238,
      "tions": 5239,
      "rele": 5240,
      "ads": 5241,
      "uggling": 5242,
      "covery": 5243,
      "usty": 5244,
      "creation": 5245,
      "struggled": 5246,
      "windy": 5247,
      "magnets": 5248,
      "rule": 5249,
      "Joy": 5250,
      "Hippy": 5251,
      "sweat": 5252,
      "discovery": 5253,
      "darker": 5254,
      "touching": 5255,
      "paints": 5256,
      "proper": 5257,
      "However": 5258,
      "heroes": 5259,
      "pans": 5260,
      "actions": 5261,
      "actually": 5262,
      "fears": 5263,
      "candies": 5264,
      "tune": 5265,
      "feeding": 5266,
      "horns": 5267,
      "shooting": 5268,
      "Pippa": 5269,
      "dusty": 5270,
      "Uncle": 5271,
      "awesome": 5272,
      "pupil": 5273,
      "Yesterday": 5274,
      "bleeding": 5275,
      "admiring": 5276,
      "refuse": 5277,
      "Rabbit": 5278,
      "Bri": 5279,
      "During": 5280,
      "Jam": 5281,
      "Luck": 5282,
      "Sant": 5283,
      "Tara": 5284,
      "aster": 5285,
      "awake": 5286,
      "cus": 5287,
      "died": 5288,
      "ners": 5289,
      "vor": 5290,
      "vic": 5291,
      "toss": 5292,
      "ouch": 5293,
      "wasted": 5294,
      "isty": 5295,
      "onwards": 5296,
      "ora": 5297,
      "thud": 5298,
      "liqu": 5299,
      "wanting": 5300,
      "prettie": 5301,
      "decis": 5302,
      "foods": 5303,
      "struggling": 5304,
      "bedtime": 5305,
      "twisty": 5306,
      "Jolly": 5307,
      "contest": 5308,
      "contain": 5309,
      "scoop": 5310,
      "wizard": 5311,
      "shrug": 5312,
      "valued": 5313,
      "patiently": 5314,
      "teamwork": 5315,
      "spraying": 5316,
      "dinosaurs": 5317,
      "flags": 5318,
      "spaceship": 5319,
      "neighbors": 5320,
      "helmets": 5321,
      "loaded": 5322,
      "weeks": 5323,
      "sneaky": 5324,
      "Quack": 5325,
      "honk": 5326,
      "neighbourhood": 5327,
      "Jessica": 5328,
      "surrounded": 5329,
      "timer": 5330,
      "wedding": 5331,
      "restored": 5332,
      "company": 5333,
      "Elephant": 5334,
      "Luckily": 5335,
      "Santa": 5336,
      "liquid": 5337,
      "prettiest": 5338,
      "Dr": 5339,
      "Ew": 5340,
      "Foxy": 5341,
      "Jan": 5342,
      "Jilly": 5343,
      "Take": 5344,
      "instruc": 5345,
      "lee": 5346,
      "stare": 5347,
      "iggling": 5348,
      "seven": 5349,
      "catches": 5350,
      "pride": 5351,
      "uct": 5352,
      "achie": 5353,
      "quacked": 5354,
      "poking": 5355,
      "pause": 5356,
      "crept": 5357,
      "chef": 5358,
      "sings": 5359,
      "worker": 5360,
      "insist": 5361,
      "project": 5362,
      "Jenna": 5363,
      "Blink": 5364,
      "Pepper": 5365,
      "Meg": 5366,
      "paying": 5367,
      "siren": 5368,
      "paintings": 5369,
      "bloomed": 5370,
      "scooters": 5371,
      "polishing": 5372,
      "sights": 5373,
      "succeeded": 5374,
      "Hopper": 5375,
      "frosting": 5376,
      "recognized": 5377,
      "appreciate": 5378,
      "Brian": 5379,
      "Jamie": 5380,
      "Day": 5381,
      "Jump": 5382,
      "Moo": 5383,
      "Muff": 5384,
      "Per": 5385,
      "Sof": 5386,
      "Uh": 5387,
      "eight": 5388,
      "fas": 5389,
      "ker": 5390,
      "otion": 5391,
      "orted": 5392,
      "beads": 5393,
      "ric": 5394,
      "adult": 5395,
      "peppers": 5396,
      "anger": 5397,
      "traded": 5398,
      "accompl": 5399,
      "cones": 5400,
      "guys": 5401,
      "airplane": 5402,
      "flutter": 5403,
      "patience": 5404,
      "diving": 5405,
      "scooped": 5406,
      "bringing": 5407,
      "tier": 5408,
      "Rollie": 5409,
      "celebration": 5410,
      "splashes": 5411,
      "blows": 5412,
      "blooming": 5413,
      "scattering": 5414,
      "nails": 5415,
      "cushions": 5416,
      "pears": 5417,
      "penguins": 5418,
      "ribbons": 5419,
      "mittens": 5420,
      "Love": 5421,
      "passports": 5422,
      "sighs": 5423,
      "demanded": 5424,
      "balanced": 5425,
      "...\"": 5426,
      "rescued": 5427,
      "instructions": 5428,
      "Muffin": 5429,
      "Sofia": 5430,
      "fascin": 5431,
      "Dara": 5432,
      "En": 5433,
      "Hor": 5434,
      "Je": 5435,
      "Jon": 5436,
      "Mouse": 5437,
      "Nice": 5438,
      "Try": 5439,
      "fits": 5440,
      "tum": 5441,
      "zie": 5442,
      "todd": 5443,
      "sadness": 5444,
      "starfish": 5445,
      "backward": 5446,
      "fact": 5447,
      "goodnight": 5448,
      "homework": 5449,
      "learns": 5450,
      "struck": 5451,
      "reluct": 5452,
      "conf": 5453,
      "confli": 5454,
      "explorers": 5455,
      "purred": 5456,
      "visiting": 5457,
      "villag": 5458,
      "drives": 5459,
      "organizing": 5460,
      "protected": 5461,
      "protecting": 5462,
      "Brownie": 5463,
      "scales": 5464,
      "examined": 5465,
      "reminder": 5466,
      "Betsy": 5467,
      "flavor": 5468,
      "Suzie": 5469,
      "froze": 5470,
      "applauded": 5471,
      "Chew": 5472,
      "apologize": 5473,
      "baker": 5474,
      "Green": 5475,
      "Princess": 5476,
      "officer": 5477,
      "conflict": 5478,
      "Abig": 5479,
      "La": 5480,
      "Pu": 5481,
      "Silly": 5482,
      "Top": 5483,
      "Turtle": 5484,
      "Zipper": 5485,
      "bbled": 5486,
      "ese": 5487,
      "iar": 5488,
      "moo": 5489,
      "wound": 5490,
      "wins": 5491,
      "xie": 5492,
      "ref": 5493,
      "itches": 5494,
      "iders": 5495,
      "exact": 5496,
      "helpers": 5497,
      "rance": 5498,
      "smallest": 5499,
      "whatever": 5500,
      "prettier": 5501,
      "Anne": 5502,
      "strum": 5503,
      "smiley": 5504,
      "cracked": 5505,
      "firefight": 5506,
      "woof": 5507,
      "snowball": 5508,
      "Beth": 5509,
      "dipped": 5510,
      "dragged": 5511,
      "iggy": 5512,
      "Robo": 5513,
      "yesterday": 5514,
      "guns": 5515,
      "leading": 5516,
      "aws": 5517,
      "changing": 5518,
      "recording": 5519,
      "Star": 5520,
      "shivered": 5521,
      "figures": 5522,
      "rides": 5523,
      "spells": 5524,
      "planets": 5525,
      "familiar": 5526,
      "pastels": 5527,
      "Prince": 5528,
      "behavi": 5529,
      "spikes": 5530,
      "Crab": 5531,
      "Squirrel": 5532,
      "smarter": 5533,
      "barely": 5534,
      "released": 5535,
      "victory": 5536,
      "toddler": 5537,
      "reluctantly": 5538,
      "Abigail": 5539,
      "Cla": 5540,
      "Holly": 5541,
      "Mine": 5542,
      "Pi": 5543,
      "Patch": 5544,
      "Run": 5545,
      "Sn": 5546,
      "chat": 5547,
      "cous": 5548,
      "itor": 5549,
      "nies": 5550,
      "sides": 5551,
      "anno": 5552,
      "becoming": 5553,
      "hadow": 5554,
      "shirts": 5555,
      "ops": 5556,
      "stole": 5557,
      "gotten": 5558,
      "sunlight": 5559,
      "anytime": 5560,
      "bbed": 5561,
      "hugging": 5562,
      "tru": 5563,
      "fied": 5564,
      "squish": 5565,
      "stern": 5566,
      "firemen": 5567,
      "reply": 5568,
      "precious": 5569,
      "bowls": 5570,
      "covers": 5571,
      "powers": 5572,
      "wraps": 5573,
      "packing": 5574,
      "rockets": 5575,
      "inviting": 5576,
      "Without": 5577,
      "jamas": 5578,
      "delivering": 5579,
      "click": 5580,
      "Whee": 5581,
      "twirl": 5582,
      "introduc": 5583,
      "warnings": 5584,
      "buzzing": 5585,
      "Buggy": 5586,
      "Fishy": 5587,
      "sprinkles": 5588,
      "exactly": 5589,
      "annoy": 5590,
      "Book": 5591,
      "Oops": 5592,
      "Que": 5593,
      "Say": 5594,
      "Woo": 5595,
      "bly": 5596,
      "masks": 5597,
      "osity": 5598,
      "pins": 5599,
      "sending": 5600,
      "sense": 5601,
      "vines": 5602,
      "wid": 5603,
      "iding": 5604,
      "irm": 5605,
      "behaving": 5606,
      "chips": 5607,
      "robb": 5608,
      "weren": 5609,
      "peas": 5610,
      "peered": 5611,
      "fault": 5612,
      "whose": 5613,
      "pajamas": 5614,
      "joked": 5615,
      "spins": 5616,
      "keys": 5617,
      "stands": 5618,
      "misses": 5619,
      "snowballs": 5620,
      "visitor": 5621,
      "Belle": 5622,
      "arrive": 5623,
      "sparkles": 5624,
      "princesses": 5625,
      "Truck": 5626,
      "Trust": 5627,
      "sports": 5628,
      "complained": 5629,
      "cocoon": 5630,
      "quarreling": 5631,
      "tickets": 5632,
      "separated": 5633,
      "cuddle": 5634,
      "Shr": 5635,
      "Chess": 5636,
      "Sparkle": 5637,
      "wiggled": 5638,
      "arguing": 5639,
      "Sadie": 5640,
      "activities": 5641,
      "situation": 5642,
      "Giraffe": 5643,
      "villagers": 5644,
      "Queen": 5645,
      "Adam": 5646,
      "Oli": 5647,
      "Paws": 5648,
      "Stell": 5649,
      "Shadow": 5650,
      "fab": 5651,
      "firm": 5652,
      "hus": 5653,
      "motion": 5654,
      "plent": 5655,
      "atches": 5656,
      "belly": 5657,
      "thro": 5658,
      "forgiving": 5659,
      "aren": 5660,
      "somebody": 5661,
      "caused": 5662,
      "scarves": 5663,
      "teased": 5664,
      "brand": 5665,
      "forehead": 5666,
      "mailed": 5667,
      "spiders": 5668,
      "perched": 5669,
      "farther": 5670,
      "chases": 5671,
      "creams": 5672,
      "snatched": 5673,
      "yells": 5674,
      "curiosity": 5675,
      "blocking": 5676,
      "tractor": 5677,
      "biting": 5678,
      "naps": 5679,
      "itchy": 5680,
      "knocks": 5681,
      "startled": 5682,
      "bells": 5683,
      "pockets": 5684,
      "rainbows": 5685,
      "Roar": 5686,
      "paths": 5687,
      "folding": 5688,
      "bounces": 5689,
      "kicks": 5690,
      "groups": 5691,
      "tricky": 5692,
      "leaning": 5693,
      "completed": 5694,
      "Snowman": 5695,
      "growling": 5696,
      "Hoot": 5697,
      "improved": 5698,
      "superheroes": 5699,
      "cuddly": 5700,
      "discovering": 5701,
      "increased": 5702,
      "choices": 5703,
      "grandmother": 5704,
      "chirping": 5705,
      "requested": 5706,
      "travell": 5707,
      "Sadly": 5708,
      "items": 5709,
      "properly": 5710,
      "Janie": 5711,
      "fascinated": 5712,
      "Horsy": 5713,
      "reflect": 5714,
      "truly": 5715,
      "widened": 5716,
      "Stella": 5717,
      "plenty": 5718,
      "throat": 5719,
      "Am": 5720,
      "Cow": 5721,
      "Mother": 5722,
      "Nut": 5723,
      "Oak": 5724,
      "Pup": 5725,
      "Rac": 5726,
      "Twink": 5727,
      "Very": 5728,
      "Wink": 5729,
      "Zee": 5730,
      "cent": 5731,
      "fut": 5732,
      "giggling": 5733,
      "nine": 5734,
      "vin": 5735,
      "ining": 5736,
      "neither": 5737,
      "weed": 5738,
      "chop": 5739,
      "sobbed": 5740,
      "worries": 5741,
      "observed": 5742,
      "usually": 5743,
      "polar": 5744,
      "rocking": 5745,
      "handful": 5746,
      "listens": 5747,
      "agrees": 5748,
      "promises": 5749,
      "Toot": 5750,
      "swims": 5751,
      "reaching": 5752,
      "dived": 5753,
      "pointy": 5754,
      "pops": 5755,
      "shrinking": 5756,
      "creating": 5757,
      "Birdie": 5758,
      "soaring": 5759,
      "policeman": 5760,
      "tunnels": 5761,
      "curtains": 5762,
      "hallway": 5763,
      "rewarded": 5764,
      "images": 5765,
      "honked": 5766,
      "buzzed": 5767,
      "Yeah": 5768,
      "direction": 5769,
      "Excuse": 5770,
      "fabric": 5771,
      "Twinkle": 5772,
      "future": 5773,
      "==": 5774,
      "Bigg": 5775,
      "Fit": 5776,
      "Fid": 5777,
      "Fine": 5778,
      "Isa": 5779,
      "Lau": 5780,
      "Olly": 5781,
      "Pur": 5782,
      "Vroom": 5783,
      "Wake": 5784,
      "Yummy": 5785,
      "bur": 5786,
      "bie": 5787,
      "gross": 5788,
      "hins": 5789,
      "lves": 5790,
      "sank": 5791,
      "tasks": 5792,
      "tuce": 5793,
      "vies": 5794,
      "repa": 5795,
      "onge": 5796,
      "bella": 5797,
      "bodies": 5798,
      "chuck": 5799,
      "urried": 5800,
      "cans": 5801,
      "staring": 5802,
      "noses": 5803,
      "seesaw": 5804,
      "everyday": 5805,
      "blings": 5806,
      "movies": 5807,
      "angled": 5808,
      "lettuce": 5809,
      "sponge": 5810,
      "untied": 5811,
      "Jojo": 5812,
      "stays": 5813,
      "custo": 5814,
      "Jacky": 5815,
      "pretends": 5816,
      "dropping": 5817,
      "firefly": 5818,
      "swallow": 5819,
      "nests": 5820,
      "bows": 5821,
      "napkins": 5822,
      "grows": 5823,
      "whispers": 5824,
      "corners": 5825,
      "scurried": 5826,
      "interested": 5827,
      "celebrating": 5828,
      "vanilla": 5829,
      "siblings": 5830,
      "bracelets": 5831,
      "basement": 5832,
      "completely": 5833,
      "growls": 5834,
      "suffered": 5835,
      "beyond": 5836,
      "Great": 5837,
      "effort": 5838,
      "Kaylee": 5839,
      "deserve": 5840,
      "accomplish": 5841,
      "Enjoy": 5842,
      "Jeff": 5843,
      "husband": 5844,
      "Biggie": 5845,
      "Fido": 5846,
      "Isabella": 5847,
      "?'": 5848,
      "Along": 5849,
      "Candy": 5850,
      "Di": 5851,
      "Jay": 5852,
      "Mam": 5853,
      "Mint": 5854,
      "Near": 5855,
      "Other": 5856,
      "Pam": 5857,
      "Pine": 5858,
      "Ra": 5859,
      "Sl": 5860,
      "Snap": 5861,
      "Tam": 5862,
      "dent": 5863,
      "merry": 5864,
      "pite": 5865,
      "uzz": 5866,
      "vowed": 5867,
      "yum": 5868,
      "itched": 5869,
      "ends": 5870,
      "rious": 5871,
      "losing": 5872,
      "seas": 5873,
      "rol": 5874,
      "backwards": 5875,
      "potion": 5876,
      "ranger": 5877,
      "cost": 5878,
      "iley": 5879,
      "however": 5880,
      "reads": 5881,
      "slam": 5882,
      "bravery": 5883,
      "stem": 5884,
      "singer": 5885,
      "joyed": 5886,
      "dollar": 5887,
      "ventured": 5888,
      "satis": 5889,
      "sweets": 5890,
      "marked": 5891,
      "replaced": 5892,
      "filling": 5893,
      "patted": 5894,
      "wishing": 5895,
      "speaking": 5896,
      "sails": 5897,
      "partic": 5898,
      "practicing": 5899,
      "ships": 5900,
      "tearing": 5901,
      "Megan": 5902,
      "squares": 5903,
      "pumpkins": 5904,
      "spreading": 5905,
      "batteries": 5906,
      "Tweetie": 5907,
      "peeking": 5908,
      "Rudy": 5909,
      "supplies": 5910,
      "Davey": 5911,
      "tickled": 5912,
      "wobbly": 5913,
      "dots": 5914,
      "Baa": 5915,
      "confident": 5916,
      "Claire": 5917,
      "squishy": 5918,
      "Nutty": 5919,
      "repaired": 5920,
      "--": 5921,
      "Ball": 5922,
      "Bang": 5923,
      "Birthday": 5924,
      "Fe": 5925,
      "Hur": 5926,
      "Ind": 5927,
      "Soft": 5928,
      "Two": 5929,
      "Vi": 5930,
      "Yaw": 5931,
      "Ziggy": 5932,
      "aut": 5933,
      "grip": 5934,
      "hunt": 5935,
      "recor": 5936,
      "refre": 5937,
      "haust": 5938,
      "aye": 5939,
      "stain": 5940,
      "ory": 5941,
      "ripe": 5942,
      "players": 5943,
      "sequ": 5944,
      "unpacked": 5945,
      "entire": 5946,
      "entrance": 5947,
      "forts": 5948,
      "mommies": 5949,
      "aside": 5950,
      "roses": 5951,
      "?\",": 5952,
      "deal": 5953,
      "caut": 5954,
      "poster": 5955,
      "surface": 5956,
      "rains": 5957,
      "softer": 5958,
      "workers": 5959,
      "Jackie": 5960,
      "lighter": 5961,
      "ledge": 5962,
      "Toys": 5963,
      "rolls": 5964,
      "planning": 5965,
      "flames": 5966,
      "snowmen": 5967,
      "rotting": 5968,
      "control": 5969,
      "wires": 5970,
      "sprang": 5971,
      "steady": 5972,
      "comforted": 5973,
      "counts": 5974,
      "stool": 5975,
      "calmed": 5976,
      "footsteps": 5977,
      "decorating": 5978,
      "burns": 5979,
      "arrows": 5980,
      "necklaces": 5981,
      "dolphins": 5982,
      "competition": 5983,
      "Liam": 5984,
      "knees": 5985,
      "pouring": 5986,
      "shorts": 5987,
      "shelves": 5988,
      "scratches": 5989,
      "minerals": 5990,
      "student": 5991,
      "wandering": 5992,
      "licking": 5993,
      "Monster": 5994,
      "twinkling": 5995,
      "respons": 5996,
      "paddle": 5997,
      "stroked": 5998,
      "guests": 5999,
      "chefs": 6000,
      "firefighters": 6001,
      "reflection": 6002,
      "Dizzy": 6003,
      "dentist": 6004,
      "Vivi": 6005,
      "Yawn": 6006,
      "recorder": 6007,
      "refreshed": 6008,
      "10": 6009,
      "Ah": 6010,
      "Brad": 6011,
      "Cu": 6012,
      "Faye": 6013,
      "Gu": 6014,
      "Isn": 6015,
      "Mild": 6016,
      "Pen": 6017,
      "Ral": 6018,
      "Ruff": 6019,
      "Spir": 6020,
      "Te": 6021,
      "Tri": 6022,
      "Zero": 6023,
      "bunch": 6024,
      "mood": 6025,
      "opp": 6026,
      "rising": 6027,
      "tangled": 6028,
      "wow": 6029,
      "anna": 6030,
      "ented": 6031,
      "ampol": 6032,
      "third": 6033,
      "exhaust": 6034,
      "notes": 6035,
      "Only": 6036,
      "outdoors": 6037,
      "ters": 6038,
      "iles": 6039,
      "knowledge": 6040,
      "watering": 6041,
      "surfing": 6042,
      "trampol": 6043,
      "least": 6044,
      "overjoyed": 6045,
      "colored": 6046,
      "Afterwards": 6047,
      "steer": 6048,
      "single": 6049,
      "waiter": 6050,
      "remembering": 6051,
      "conne": 6052,
      "consequ": 6053,
      "bars": 6054,
      "hider": 6055,
      "closes": 6056,
      "winked": 6057,
      "signed": 6058,
      "Reg": 6059,
      "piggy": 6060,
      "passing": 6061,
      "bathing": 6062,
      "pastries": 6063,
      "minded": 6064,
      "touches": 6065,
      "desert": 6066,
      "seeker": 6067,
      "rubbing": 6068,
      "prayer": 6069,
      "drums": 6070,
      "towels": 6071,
      "relief": 6072,
      "uggles": 6073,
      "supported": 6074,
      "stumble": 6075,
      "loading": 6076,
      "lollipops": 6077,
      "flapping": 6078,
      "shovels": 6079,
      "Suki": 6080,
      "included": 6081,
      "cheeks": 6082,
      "begin": 6083,
      "performed": 6084,
      "rumble": 6085,
      "strongest": 6086,
      "chuckled": 6087,
      "Softy": 6088,
      "Ralph": 6089,
      "Spirit": 6090,
      "Trixie": 6091,
      "trampoline": 6092,
      "consequence": 6093,
      "Aunt": 6094,
      "Bally": 6095,
      "Dina": 6096,
      "Ell": 6097,
      "Jones": 6098,
      "Ma": 6099,
      "Mic": 6100,
      "Soup": 6101,
      "Spin": 6102,
      "Up": 6103,
      "alie": 6104,
      "aimed": 6105,
      "bun": 6106,
      "cers": 6107,
      "fle": 6108,
      "hoo": 6109,
      "rusty": 6110,
      "swords": 6111,
      "turt": 6112,
      "via": 6113,
      "toaster": 6114,
      "instrum": 6115,
      "hael": 6116,
      "impossible": 6117,
      "sale": 6118,
      "ths": 6119,
      "thorn": 6120,
      "lies": 6121,
      "forgiven": 6122,
      "rocked": 6123,
      "pose": 6124,
      "swooped": 6125,
      "bert": 6126,
      "talent": 6127,
      "spat": 6128,
      "dancers": 6129,
      "stew": 6130,
      "tables": 6131,
      "darkness": 6132,
      "fairies": 6133,
      "joining": 6134,
      "Jennie": 6135,
      "baths": 6136,
      "kittens": 6137,
      "machines": 6138,
      "adding": 6139,
      "prayers": 6140,
      "matters": 6141,
      "blown": 6142,
      "mushrooms": 6143,
      "squeaked": 6144,
      "sneezing": 6145,
      "wipes": 6146,
      "whistles": 6147,
      "Albert": 6148,
      "ornaments": 6149,
      "humans": 6150,
      "Shiver": 6151,
      "twirling": 6152,
      "darling": 6153,
      "sewed": 6154,
      "surroundings": 6155,
      "backpacks": 6156,
      "hesitated": 6157,
      "decisions": 6158,
      "achieve": 6159,
      "cousin": 6160,
      "introduced": 6161,
      "particular": 6162,
      "Hurricane": 6163,
      "exhausted": 6164,
      "consequences": 6165,
      "Michael": 6166,
      "turtles": 6167,
      "Fro": 6168,
      "Grac": 6169,
      "Hallow": 6170,
      "Kelly": 6171,
      "Lion": 6172,
      "Match": 6173,
      "Pink": 6174,
      "Stre": 6175,
      "Tree": 6176,
      "ashes": 6177,
      "een": 6178,
      "goo": 6179,
      "lan": 6180,
      "lon": 6181,
      "lending": 6182,
      "nuzz": 6183,
      "tweet": 6184,
      "thest": 6185,
      "ount": 6186,
      "stung": 6187,
      "amed": 6188,
      "neare": 6189,
      "neath": 6190,
      "sewing": 6191,
      "geese": 6192,
      "aloud": 6193,
      "chie": 6194,
      "fever": 6195,
      "loops": 6196,
      "carts": 6197,
      "gobbled": 6198,
      "shaped": 6199,
      "yourselves": 6200,
      "skirts": 6201,
      "trig": 6202,
      "talents": 6203,
      "badge": 6204,
      "tops": 6205,
      "nodding": 6206,
      "sation": 6207,
      "heading": 6208,
      "wrist": 6209,
      "guide": 6210,
      "swimmer": 6211,
      "crumb": 6212,
      "slowed": 6213,
      "heavier": 6214,
      "tighter": 6215,
      "rows": 6216,
      "health": 6217,
      "Whistle": 6218,
      "Bluey": 6219,
      "doctors": 6220,
      "sparks": 6221,
      "source": 6222,
      "forgets": 6223,
      "prick": 6224,
      "tested": 6225,
      "wakes": 6226,
      "issue": 6227,
      "twisting": 6228,
      "clowns": 6229,
      "frowning": 6230,
      "ghosts": 6231,
      "Starry": 6232,
      "jackets": 6233,
      "salty": 6234,
      "rubs": 6235,
      "gracefully": 6236,
      "forks": 6237,
      "mesmer": 6238,
      "angels": 6239,
      "determination": 6240,
      "Didi": 6241,
      "bumps": 6242,
      "curly": 6243,
      "regretted": 6244,
      "grandfather": 6245,
      "directions": 6246,
      "Excited": 6247,
      "Tippy": 6248,
      "Deal": 6249,
      "Percy": 6250,
      "Pizza": 6251,
      "robber": 6252,
      "slammed": 6253,
      "Indy": 6254,
      "cautious": 6255,
      "Elle": 6256,
      "Frosty": 6257,
      "Gracie": 6258,
      "Halloween": 6259,
      "Cro": 6260,
      "Ed": 6261,
      "Ice": 6262,
      "astron": 6263,
      "bumpy": 6264,
      "ev": 6265,
      "fting": 6266,
      "ix": 6267,
      "iel": 6268,
      "lsa": 6269,
      "mater": 6270,
      "tissue": 6271,
      "reason": 6272,
      "imb": 6273,
      "among": 6274,
      "ply": 6275,
      "loses": 6276,
      "ading": 6277,
      "force": 6278,
      "feast": 6279,
      "oosh": 6280,
      "deed": 6281,
      "sunscreen": 6282,
      "pecked": 6283,
      "whoosh": 6284,
      "skunk": 6285,
      "underneath": 6286,
      "vented": 6287,
      "switched": 6288,
      "combed": 6289,
      "magpie": 6290,
      "pered": 6291,
      "farthest": 6292,
      "Which": 6293,
      "culp": 6294,
      "warmer": 6295,
      "snuck": 6296,
      "swept": 6297,
      "hides": 6298,
      "Boys": 6299,
      "mischie": 6300,
      "pleaded": 6301,
      "glued": 6302,
      "paintbrush": 6303,
      "scor": 6304,
      "suits": 6305,
      "Gray": 6306,
      "slipping": 6307,
      "erase": 6308,
      "honesty": 6309,
      "hopeful": 6310,
      "active": 6311,
      "solut": 6312,
      "videos": 6313,
      "frowns": 6314,
      "avoid": 6315,
      "Daniel": 6316,
      "models": 6317,
      "cobwebs": 6318,
      "insects": 6319,
      "objects": 6320,
      "yielded": 6321,
      "countryside": 6322,
      "breathed": 6323,
      "...": 6324,
      "performing": 6325,
      ".'\"": 6326,
      "obeyed": 6327,
      "ruining": 6328,
      "Poor": 6329,
      "Shake": 6330,
      "risk": 6331,
      "sweaty": 6332,
      "annoyed": 6333,
      "Books": 6334,
      "Shrink": 6335,
      "customer": 6336,
      "responsible": 6337,
      "fleas": 6338,
      "crumbs": 6339,
      "astronaut": 6340,
      "Abb": 6341,
      "Bark": 6342,
      "Ce": 6343,
      "Cha": 6344,
      "Edd": 6345,
      "Har": 6346,
      "Hurry": 6347,
      "Laser": 6348,
      "Mil": 6349,
      "Madd": 6350,
      "Nate": 6351,
      "Prom": 6352,
      "Rick": 6353,
      "Se": 6354,
      "Show": 6355,
      "Tig": 6356,
      "backed": 6357,
      "cash": 6358,
      "dama": 6359,
      "earn": 6360,
      "iv": 6361,
      "ien": 6362,
      "iam": 6363,
      "jack": 6364,
      "lou": 6365,
      "len": 6366,
      "mate": 6367,
      "munch": 6368,
      "rup": 6369,
      "sway": 6370,
      "scra": 6371,
      "sculp": 6372,
      "woo": 6373,
      "aned": 6374,
      "rever": 6375,
      "halves": 6376,
      "plain": 6377,
      "cept": 6378,
      "unsure": 6379,
      "lia": 6380,
      "ades": 6381,
      "rops": 6382,
      "shown": 6383,
      "rather": 6384,
      "raind": 6385,
      "rainy": 6386,
      "treehouse": 6387,
      "abil": 6388,
      "uren": 6389,
      "puff": 6390,
      "maker": 6391,
      "talented": 6392,
      "spits": 6393,
      "donkey": 6394,
      "afterwards": 6395,
      "Does": 6396,
      "charac": 6397,
      "dollhouse": 6398,
      "serving": 6399,
      "cutter": 6400,
      "curiously": 6401,
      "printing": 6402,
      "slower": 6403,
      "joins": 6404,
      "buying": 6405,
      "tasting": 6406,
      "presses": 6407,
      "prevented": 6408,
      "purr": 6409,
      "scrub": 6410,
      "dragonfly": 6411,
      "fans": 6412,
      "planting": 6413,
      "zooms": 6414,
      "tipped": 6415,
      "slither": 6416,
      "William": 6417,
      "trusting": 6418,
      "ignoring": 6419,
      "imagining": 6420,
      "leads": 6421,
      "stuffing": 6422,
      "tigers": 6423,
      "markers": 6424,
      "reminds": 6425,
      "belts": 6426,
      "squeezing": 6427,
      "designed": 6428,
      "Although": 6429,
      "blinking": 6430,
      "Copper": 6431,
      "Wiggles": 6432,
      "gazing": 6433,
      "rails": 6434,
      "knocking": 6435,
      "Climb": 6436,
      "including": 6437,
      "June": 6438,
      "masterpiece": 6439,
      "adults": 6440,
      "Lauren": 6441,
      "Woolly": 6442,
      "visitors": 6443,
      "Oliver": 6444,
      "Amanda": 6445,
      "Mamma": 6446,
      "prickly": 6447,
      "material": 6448,
      "Abbie": 6449,
      "Eddie": 6450,
      "Milo": 6451,
      "Maddie": 6452,
      "damage": 6453,
      "loudest": 6454,
      "sculpture": 6455,
      "raindrops": 6456,
      "'.\"": 6457,
      "Ar": 6458,
      "App": 6459,
      "Acorn": 6460,
      "Auntie": 6461,
      "Brun": 6462,
      "Bloom": 6463,
      "Cally": 6464,
      "Dusty": 6465,
      "Karen": 6466,
      "Mart": 6467,
      "Old": 6468,
      "Playing": 6469,
      "Tia": 6470,
      "Vio": 6471,
      "Wend": 6472,
      "acle": 6473,
      "buses": 6474,
      "cot": 6475,
      "cas": 6476,
      "date": 6477,
      "gar": 6478,
      "hour": 6479,
      "miles": 6480,
      "sill": 6481,
      "tin": 6482,
      "tid": 6483,
      "tles": 6484,
      "ul": 6485,
      "ude": 6486,
      "toed": 6487,
      "itude": 6488,
      "issa": 6489,
      "amount": 6490,
      "ira": 6491,
      "plucked": 6492,
      "unfamiliar": 6493,
      "lifting": 6494,
      "dod": 6495,
      "soaking": 6496,
      "lped": 6497,
      "inda": 6498,
      "ico": 6499,
      "stopping": 6500,
      "stolen": 6501,
      "gras": 6502,
      "everybody": 6503,
      "bottles": 6504,
      "lower": 6505,
      "umph": 6506,
      "Weapon": 6507,
      "greet": 6508,
      "Ant": 6509,
      "Ange": 6510,
      "papa": 6511,
      "surprising": 6512,
      "cheers": 6513,
      "twice": 6514,
      "coloured": 6515,
      "compe": 6516,
      "overcome": 6517,
      "char": 6518,
      "champ": 6519,
      "Nobody": 6520,
      "fins": 6521,
      "colder": 6522,
      "Johny": 6523,
      "talks": 6524,
      "shopper": 6525,
      "duckling": 6526,
      "pleasure": 6527,
      "dience": 6528,
      "!”.": 6529,
      "Leopard": 6530,
      "tires": 6531,
      "drivers": 6532,
      "audience": 6533,
      "correct": 6534,
      "brushing": 6535,
      "caterpillars": 6536,
      "journeys": 6537,
      "flipped": 6538,
      "solving": 6539,
      "temper": 6540,
      "rays": 6541,
      "twists": 6542,
      "squeal": 6543,
      "rats": 6544,
      "reminding": 6545,
      "Still": 6546,
      "wealth": 6547,
      "occas": 6548,
      "osite": 6549,
      "wiping": 6550,
      "Alright": 6551,
      "bandages": 6552,
      "freed": 6553,
      "camping": 6554,
      "oysters": 6555,
      "surfboard": 6556,
      "indeed": 6557,
      "apolog": 6558,
      "recommended": 6559,
      "groceries": 6560,
      "Melissa": 6561,
      "wobbled": 6562,
      "twinkled": 6563,
      "paddled": 6564,
      "tossed": 6565,
      "Days": 6566,
      "fluttered": 6567,
      "mooed": 6568,
      "wounds": 6569,
      "behaviour": 6570,
      "Snuggles": 6571,
      "firmly": 6572,
      "travelled": 6573,
      "Rachel": 6574,
      "Laura": 6575,
      "accomplishment": 6576,
      "satisfied": 6577,
      "opposite": 6578,
      "bunnies": 6579,
      "nearest": 6580,
      "evil": 6581,
      "solution": 6582,
      "Promise": 6583,
      "Tiger": 6584,
      "reversed": 6585,
      "Bruno": 6586,
      "Martha": 6587,
      "Violet": 6588,
      "Wendy": 6589,
      "champion": 6590,
      "!’": 6591,
      "?!\"": 6592,
      "Aly": 6593,
      "Bumpy": 6594,
      "Com": 6595,
      "Cir": 6596,
      "Cic": 6597,
      "Elsa": 6598,
      "Flo": 6599,
      "Fire": 6600,
      "Hook": 6601,
      "Jem": 6602,
      "Oink": 6603,
      "Pret": 6604,
      "Ri": 6605,
      "Rain": 6606,
      "Ria": 6607,
      "Ske": 6608,
      "Smo": 6609,
      "Tank": 6610,
      "Willy": 6611,
      "Yet": 6612,
      "Yell": 6613,
      "ashed": 6614,
      "bits": 6615,
      "cond": 6616,
      "dump": 6617,
      "echo": 6618,
      "ease": 6619,
      "flock": 6620,
      "flight": 6621,
      "lent": 6622,
      "lump": 6623,
      "nger": 6624,
      "pouted": 6625,
      "tock": 6626,
      "insp": 6627,
      "inches": 6628,
      "rey": 6629,
      "refe": 6630,
      "ition": 6631,
      "ware": 6632,
      "wasting": 6633,
      "onward": 6634,
      "onions": 6635,
      "becomes": 6636,
      "rier": 6637,
      "playroom": 6638,
      "within": 6639,
      "sess": 6640,
      "kes": 6641,
      "younger": 6642,
      "cky": 6643,
      "wee": 6644,
      "forgetting": 6645,
      "robin": 6646,
      "shoo": 6647,
      "racco": 6648,
      "idey": 6649,
      "newfound": 6650,
      "parted": 6651,
      "goalie": 6652,
      "fus": 6653,
      "backs": 6654,
      "owny": 6655,
      "grum": 6656,
      "shall": 6657,
      "elbow": 6658,
      "clas": 6659,
      "bbit": 6660,
      "tapping": 6661,
      "taped": 6662,
      "flown": 6663,
      "spice": 6664,
      "Doll": 6665,
      "gardener": 6666,
      "Jody": 6667,
      "thrown": 6668,
      "written": 6669,
      "explorer": 6670,
      "dripping": 6671,
      "drifted": 6672,
      "healing": 6673,
      "chosen": 6674,
      "robots": 6675,
      "circus": 6676,
      "peacefully": 6677,
      "pancakes": 6678,
      "action": 6679,
      "lifts": 6680,
      "troubles": 6681,
      "Birds": 6682,
      "respected": 6683,
      "Meowny": 6684,
      "flip": 6685,
      "sharks": 6686,
      "strips": 6687,
      "laces": 6688,
      "squeak": 6689,
      "guardian": 6690,
      "pigeons": 6691,
      "figured": 6692,
      "laptop": 6693,
      "friendships": 6694,
      "borrowed": 6695,
      "Spidey": 6696,
      "Tweety": 6697,
      "automobiles": 6698,
      "sniffing": 6699,
      "speeding": 6700,
      "trembled": 6701,
      "tubes": 6702,
      "repeats": 6703,
      "repeating": 6704,
      "neatly": 6705,
      "punishment": 6706,
      "banged": 6707,
      "results": 6708,
      "Frankie": 6709,
      "wobble": 6710,
      "rrr": 6711,
      "Crabby": 6712,
      "Louise": 6713,
      "Flora": 6714,
      "efforts": 6715,
      "Kayla": 6716,
      "Share": 6717,
      "Oxygen": 6718,
      "decision": 6719,
      "behavior": 6720,
      "Purr": 6721,
      "swallowed": 6722,
      "seasons": 6723,
      "Curious": 6724,
      "Guess": 6725,
      "beginning": 6726,
      "mischievous": 6727,
      "scored": 6728,
      "cashier": 6729,
      "grasshopper": 6730,
      "Angela": 6731,
      "apologised": 6732,
      "Cici": 6733,
      "Ribbit": 6734,
      "Skelly": 6735,
      "inspired": 6736,
      "referee": 6737,
      "raccoon": 6738,
      "Au": 6739,
      "Arm": 6740,
      "Bi": 6741,
      "Bro": 6742,
      "CD": 6743,
      "Cloud": 6744,
      "Des": 6745,
      "Fun": 6746,
      "Find": 6747,
      "Farm": 6748,
      "Fix": 6749,
      "Gin": 6750,
      "Gran": 6751,
      "Mu": 6752,
      "Make": 6753,
      "Mop": 6754,
      "Never": 6755,
      "Nora": 6756,
      "Open": 6757,
      "Par": 6758,
      "Pill": 6759,
      "Pop": 6760,
      "Summer": 6761,
      "Tick": 6762,
      "Tidy": 6763,
      "Wor": 6764,
      "Wise": 6765,
      "aim": 6766,
      "iz": 6767,
      "ias": 6768,
      "ji": 6769,
      "ls": 6770,
      "lam": 6771,
      "mers": 6772,
      "ollen": 6773,
      "py": 6774,
      "pon": 6775,
      "poo": 6776,
      "rust": 6777,
      "whim": 6778,
      "height": 6779,
      "inst": 6780,
      "ream": 6781,
      "waking": 6782,
      "ared": 6783,
      "immer": 6784,
      "stitches": 6785,
      "plot": 6786,
      "igning": 6787,
      "atur": 6788,
      "playhouse": 6789,
      "thur": 6790,
      "asers": 6791,
      "smashed": 6792,
      "hoe": 6793,
      "hog": 6794,
      "Benji": 6795,
      "coach": 6796,
      "cosy": 6797,
      "caw": 6798,
      "kings": 6799,
      "tying": 6800,
      "willing": 6801,
      "lowered": 6802,
      "bully": 6803,
      "needles": 6804,
      "swollen": 6805,
      "leap": 6806,
      "chea": 6807,
      "cleaner": 6808,
      "keepers": 6809,
      "joyful": 6810,
      "serv": 6811,
      "wrink": 6812,
      "sandpit": 6813,
      "cons": 6814,
      "drawn": 6815,
      "guy": 6816,
      "dresser": 6817,
      "Toy": 6818,
      "smelling": 6819,
      "swap": 6820,
      "grabbing": 6821,
      "winners": 6822,
      "beehive": 6823,
      "patches": 6824,
      "purrs": 6825,
      "purpose": 6826,
      "Leaf": 6827,
      "secure": 6828,
      "arrives": 6829,
      "wrapping": 6830,
      "teapot": 6831,
      "bellies": 6832,
      "bruises": 6833,
      "shady": 6834,
      "Roy": 6835,
      "moonlight": 6836,
      "spoonful": 6837,
      "Catch": 6838,
      "crossing": 6839,
      "queens": 6840,
      "Willow": 6841,
      "laws": 6842,
      "fooled": 6843,
      "breathing": 6844,
      "guessing": 6845,
      "cracker": 6846,
      "lizards": 6847,
      "Stan": 6848,
      "miller": 6849,
      "spills": 6850,
      "librarian": 6851,
      "knots": 6852,
      "weighing": 6853,
      "messes": 6854,
      "designs": 6855,
      "sniffs": 6856,
      "haircuts": 6857,
      "stalk": 6858,
      "packages": 6859,
      "enthusias": 6860,
      "pokes": 6861,
      "languages": 6862,
      "hedgehog": 6863,
      "Steppy": 6864,
      "Should": 6865,
      "tiptoed": 6866,
      "invitations": 6867,
      "Cocoa": 6868,
      "groaned": 6869,
      "bothered": 6870,
      "bothering": 6871,
      "Maya": 6872,
      "Forky": 6873,
      "sensation": 6874,
      "Flame": 6875,
      "Jonny": 6876,
      "Puppy": 6877,
      "Snake": 6878,
      "weeds": 6879,
      "connected": 6880,
      "thorns": 6881,
      "lantern": 6882,
      "nuzzled": 6883,
      "cautiously": 6884,
      "Arthur": 6885,
      "correctly": 6886,
      "Smoke": 6887,
      "Yellow": 6888,
      "spices": 6889,
      "Despite": 6890,
      "Farmer": 6891,
      "Granny": 6892,
      "lamb": 6893,
      "enthusiasm": 6894,
      "Ab": 6895,
      "Con": 6896,
      "Cel": 6897,
      "Cater": 6898,
      "Carm": 6899,
      "Eat": 6900,
      "Gra": 6901,
      "Honey": 6902,
      "Hanna": 6903,
      "Man": 6904,
      "More": 6905,
      "Might": 6906,
      "Ni": 6907,
      "Nav": 6908,
      "Number": 6909,
      "Oat": 6910,
      "Pin": 6911,
      "Rich": 6912,
      "Spoon": 6913,
      "Since": 6914,
      "Won": 6915,
      "bom": 6916,
      "bitten": 6917,
      "blast": 6918,
      "clicked": 6919,
      "center": 6920,
      "dip": 6921,
      "ized": 6922,
      "lor": 6923,
      "lings": 6924,
      "mered": 6925,
      "pout": 6926,
      "sim": 6927,
      "ssess": 6928,
      "wider": 6929,
      "zi": 6930,
      "ann": 6931,
      "waded": 6932,
      "ening": 6933,
      "encou": 6934,
      "encounter": 6935,
      "ari": 6936,
      "iddy": 6937,
      "ley": 6938,
      "rie": 6939,
      "los": 6940,
      "ppies": 6941,
      "wept": 6942,
      "noticing": 6943,
      "aling": 6944,
      "ently": 6945,
      "momma": 6946,
      "birdseed": 6947,
      "peck": 6948,
      "manners": 6949,
      "defin": 6950,
      "range": 6951,
      "cafe": 6952,
      "goodby": 6953,
      "eling": 6954,
      "antic": 6955,
      "cares": 6956,
      "waterfall": 6957,
      "itely": 6958,
      "moons": 6959,
      "possess": 6960,
      "Bobba": 6961,
      "oldy": 6962,
      "oki": 6963,
      "handsome": 6964,
      "Everybody": 6965,
      "doorway": 6966,
      "beaver": 6967,
      "Joan": 6968,
      "squaw": 6969,
      "ortun": 6970,
      "mony": 6971,
      "months": 6972,
      "locks": 6973,
      "storekeeper": 6974,
      "sweep": 6975,
      "meaning": 6976,
      "craft": 6977,
      "convin": 6978,
      "brightest": 6979,
      "displayed": 6980,
      "gues": 6981,
      "Janey": 6982,
      "worrying": 6983,
      "dances": 6984,
      "wisely": 6985,
      "glared": 6986,
      "fills": 6987,
      "Becky": 6988,
      "jobs": 6989,
      "scurry": 6990,
      "larger": 6991,
      "probab": 6992,
      "Comet": 6993,
      "realizing": 6994,
      "mints": 6995,
      "shops": 6996,
      "minding": 6997,
      "Grand": 6998,
      "belongings": 6999,
      "creativ": 7000,
      "horiz": 7001,
      "Roll": 7002,
      "Rosa": 7003,
      "cert": 7004,
      "changes": 7005,
      "raging": 7006,
      "gasp": 7007,
      "gasps": 7008,
      "springing": 7009,
      "giggles": 7010,
      "destroying": 7011,
      "iversity": 7012,
      "marker": 7013,
      "relaxing": 7014,
      "stamped": 7015,
      "crackers": 7016,
      "gems": 7017,
      "weekend": 7018,
      "meals": 7019,
      "edges": 7020,
      "streamers": 7021,
      "sniffled": 7022,
      "aeroplanes": 7023,
      "labels": 7024,
      "motorcycles": 7025,
      "screws": 7026,
      "Rufus": 7027,
      "exercises": 7028,
      "pinching": 7029,
      "films": 7030,
      "Stealing": 7031,
      "beeped": 7032,
      "clues": 7033,
      "University": 7034,
      "daring": 7035,
      "Cheap": 7036,
      "Surrender": 7037,
      "discussed": 7038,
      "massages": 7039,
      "slapping": 7040,
      "Print": 7041,
      "uniforms": 7042,
      "Judge": 7043,
      "rectangle": 7044,
      "scratching": 7045,
      "encouragement": 7046,
      "suffering": 7047,
      "Zoey": 7048,
      "admiration": 7049,
      "peeled": 7050,
      "respond": 7051,
      "activity": 7052,
      "Dezi": 7053,
      "Mixy": 7054,
      "sweaters": 7055,
      "insisting": 7056,
      "tumbled": 7057,
      "tummies": 7058,
      "centre": 7059,
      "Slinky": 7060,
      "Mabel": 7061,
      "instruments": 7062,
      "Stretch": 7063,
      "Croco": 7064,
      "Apple": 7065,
      "Mushroom": 7066,
      "ponies": 7067,
      "cheaper": 7068,
      "Leafy": 7069,
      "Caterpillar": 7070,
      "Carmen": 7071,
      "Hannah": 7072,
      "Mighty": 7073,
      "Nibbles": 7074,
      "Navy": 7075,
      "Wonder": 7076,
      "bomb": 7077,
      "encouraging": 7078,
      "definitely": 7079,
      "goodbyes": 7080,
      "probably": 7081,
      "creativity": 7082,
      "horizon": 7083,
      "''": 7084,
      ",'": 7085,
      "Aid": 7086,
      "Any": 7087,
      "Bun": 7088,
      "Bra": 7089,
      "Bucky": 7090,
      "Chug": 7091,
      "Cross": 7092,
      "Dust": 7093,
      "Dear": 7094,
      "Danger": 7095,
      "Fla": 7096,
      "Flexible": 7097,
      "Flap": 7098,
      "Giant": 7099,
      "Hat": 7100,
      "Hmm": 7101,
      "Humph": 7102,
      "Lex": 7103,
      "Life": 7104,
      "Mila": 7105,
      "Moppy": 7106,
      "Mina": 7107,
      "Micro": 7108,
      "Nina": 7109,
      "Pap": 7110,
      "RR": 7111,
      "Sk": 7112,
      "Sim": 7113,
      "Seat": 7114,
      "Swing": 7115,
      "Sham": 7116,
      "Satur": 7117,
      "Ty": 7118,
      "Tato": 7119,
      "Unt": 7120,
      "Uni": 7121,
      "War": 7122,
      "ais": 7123,
      "aware": 7124,
      "bage": 7125,
      "blocked": 7126,
      "cused": 7127,
      "eted": 7128,
      "faded": 7129,
      "gon": 7130,
      "ms": 7131,
      "mitt": 7132,
      "nur": 7133,
      "pours": 7134,
      "rin": 7135,
      "tuck": 7136,
      "ties": 7137,
      "wig": 7138,
      "yl": 7139,
      "anwhile": 7140,
      "anced": 7141,
      "tot": 7142,
      "toad": 7143,
      "toward": 7144,
      "intent": 7145,
      "intrig": 7146,
      "reas": 7147,
      "rewards": 7148,
      "Therm": 7149,
      "erk": 7150,
      "erious": 7151,
      "aya": 7152,
      "onse": 7153,
      "stall": 7154,
      "stun": 7155,
      "stings": 7156,
      "stacked": 7157,
      "nect": 7158,
      "plug": 7159,
      "beloved": 7160,
      "lope": 7161,
      "hissing": 7162,
      "sever": 7163,
      "bolt": 7164,
      "asing": 7165,
      "smoo": 7166,
      "smates": 7167,
      "shh": 7168,
      "outfits": 7169,
      "god": 7170,
      "sadder": 7171,
      "owners": 7172,
      "Samant": 7173,
      "stom": 7174,
      "grily": 7175,
      "thoughts": 7176,
      "ssy": 7177,
      "observing": 7178,
      "nasty": 7179,
      "clue": 7180,
      "greeted": 7181,
      "runner": 7182,
      "tapped": 7183,
      "bud": 7184,
      "budge": 7185,
      "acts": 7186,
      "Things": 7187,
      "drey": 7188,
      "creations": 7189,
      "common": 7190,
      "focus": 7191,
      "beast": 7192,
      "magician": 7193,
      "Whip": 7194,
      "braver": 7195,
      "bravest": 7196,
      "snorted": 7197,
      "zziness": 7198,
      "sets": 7199,
      "races": 7200,
      "concer": 7201,
      "pennies": 7202,
      "grassy": 7203,
      "farmers": 7204,
      "Todd": 7205,
      "throughout": 7206,
      "rotten": 7207,
      "ounced": 7208,
      "visits": 7209,
      "boards": 7210,
      "dizziness": 7211,
      "presen": 7212,
      "dangers": 7213,
      "affect": 7214,
      "bands": 7215,
      "Chuck": 7216,
      "Chip": 7217,
      "Chris": 7218,
      "streets": 7219,
      "genie": 7220,
      "driveway": 7221,
      "cloths": 7222,
      "cops": 7223,
      "panicked": 7224,
      "stirs": 7225,
      "returning": 7226,
      "cleared": 7227,
      "Meanwhile": 7228,
      "pays": 7229,
      "whales": 7230,
      "inald": 7231,
      "politely": 7232,
      "beanstalk": 7233,
      "rods": 7234,
      "seals": 7235,
      "fishermen": 7236,
      "Sophia": 7237,
      "vests": 7238,
      "floats": 7239,
      "flaps": 7240,
      "screwdriver": 7241,
      "mayor": 7242,
      "bathed": 7243,
      "Magic": 7244,
      "Shiny": 7245,
      "vehicles": 7246,
      "delayed": 7247,
      "allowing": 7248,
      "demanding": 7249,
      "differences": 7250,
      "Outside": 7251,
      "preparing": 7252,
      "twinkle": 7253,
      "writer": 7254,
      "Beepy": 7255,
      "sprinkled": 7256,
      "response": 7257,
      "hesitant": 7258,
      "Tibby": 7259,
      "damaged": 7260,
      "seagulls": 7261,
      "sternly": 7262,
      "annoying": 7263,
      "travelling": 7264,
      "====": 7265,
      "Reginald": 7266,
      "Spinny": 7267,
      "mesmerized": 7268,
      "risks": 7269,
      "Celia": 7270,
      "earned": 7271,
      "characters": 7272,
      "acles": 7273,
      "garbage": 7274,
      "Pretty": 7275,
      "classmates": 7276,
      "Audrey": 7277,
      "Party": 7278,
      "wrinkled": 7279,
      "consider": 7280,
      "Abi": 7281,
      "simply": 7282,
      "anticip": 7283,
      "scurrying": 7284,
      "certain": 7285,
      "Flappy": 7286,
      "Hatty": 7287,
      "Humphrey": 7288,
      "Lexi": 7289,
      "Papaya": 7290,
      "Shampoo": 7291,
      "Saturday": 7292,
      "Until": 7293,
      "gonna": 7294,
      "Thermometer": 7295,
      "nectar": 7296,
      "Samantha": 7297,
      "presented": 7298,
      "Arrr": 7299,
      "Brush": 7300,
      "Cook": 7301,
      "Close": 7302,
      "Dull": 7303,
      "Fair": 7304,
      "Jed": 7305,
      "Jumpy": 7306,
      "Kang": 7307,
      "Land": 7308,
      "Lup": 7309,
      "Ms": 7310,
      "Nurse": 7311,
      "Poo": 7312,
      "Phill": 7313,
      "Raz": 7314,
      "Rory": 7315,
      "Sly": 7316,
      "Sleep": 7317,
      "Sasha": 7318,
      "Space": 7319,
      "Syl": 7320,
      "Using": 7321,
      "Volly": 7322,
      "bou": 7323,
      "bound": 7324,
      "bbling": 7325,
      "dles": 7326,
      "elope": 7327,
      "fist": 7328,
      "gap": 7329,
      "jing": 7330,
      "lun": 7331,
      "nor": 7332,
      "pant": 7333,
      "pouch": 7334,
      "sou": 7335,
      "theat": 7336,
      "inter": 7337,
      "rely": 7338,
      "wadd": 7339,
      "Theo": 7340,
      "erts": 7341,
      "amused": 7342,
      "orter": 7343,
      "plugged": 7344,
      "atitude": 7345,
      "rick": 7346,
      "lob": 7347,
      "hisses": 7348,
      "unable": 7349,
      "express": 7350,
      "except": 7351,
      "doo": 7352,
      "formed": 7353,
      "birdhouse": 7354,
      "shorter": 7355,
      "raking": 7356,
      "ics": 7357,
      "mance": 7358,
      "defe": 7359,
      "gratitude": 7360,
      "mushy": 7361,
      "sunflowers": 7362,
      "clerk": 7363,
      "angles": 7364,
      "angrier": 7365,
      "Another": 7366,
      "Animal": 7367,
      "Bobbie": 7368,
      "packet": 7369,
      "closing": 7370,
      "skate": 7371,
      "tale": 7372,
      "trading": 7373,
      "acher": 7374,
      "swir": 7375,
      "flowing": 7376,
      "Herb": 7377,
      "ketch": 7378,
      "cheat": 7379,
      "shares": 7380,
      "spy": 7381,
      "focused": 7382,
      "owls": 7383,
      "stores": 7384,
      "snar": 7385,
      "zzie": 7386,
      "athan": 7387,
      "hotter": 7388,
      "Bolly": 7389,
      "sweetest": 7390,
      "quet": 7391,
      "dressing": 7392,
      "rivers": 7393,
      "Tock": 7394,
      "fires": 7395,
      "dreamt": 7396,
      "cloudy": 7397,
      "cupcakes": 7398,
      "artist": 7399,
      "pills": 7400,
      "corns": 7401,
      "Lea": 7402,
      "scent": 7403,
      "phones": 7404,
      "shines": 7405,
      "realizes": 7406,
      "mailing": 7407,
      "syrup": 7408,
      "sailboat": 7409,
      "Blake": 7410,
      "comforting": 7411,
      "Whist": 7412,
      "baskets": 7413,
      "teachers": 7414,
      "Goodnight": 7415,
      "ments": 7416,
      "lunchtime": 7417,
      "Peep": 7418,
      "slips": 7419,
      "collap": 7420,
      "genero": 7421,
      "despite": 7422,
      "Bussy": 7423,
      "roars": 7424,
      "glows": 7425,
      "puzzled": 7426,
      "forgives": 7427,
      "yelped": 7428,
      "chewy": 7429,
      "sprays": 7430,
      "exploration": 7431,
      "digs": 7432,
      "nervously": 7433,
      "Trucky": 7434,
      "terrified": 7435,
      "wiser": 7436,
      "striches": 7437,
      "tempt": 7438,
      "tempted": 7439,
      "croaked": 7440,
      "environ": 7441,
      "envelopes": 7442,
      "newspapers": 7443,
      "guards": 7444,
      "statues": 7445,
      "sailors": 7446,
      "traveling": 7447,
      "supporting": 7448,
      "Lizzie": 7449,
      "Robot": 7450,
      "oint": 7451,
      "disturbing": 7452,
      "lumberjack": 7453,
      "magazines": 7454,
      "desserts": 7455,
      "symbols": 7456,
      "Sunshine": 7457,
      "cuddles": 7458,
      "stomachs": 7459,
      "Cheese": 7460,
      "Dogs": 7461,
      "invites": 7462,
      "pedaled": 7463,
      "scolds": 7464,
      "Wolf": 7465,
      "permitted": 7466,
      "reckless": 7467,
      "Hailey": 7468,
      "choosing": 7469,
      "beaming": 7470,
      "quacking": 7471,
      "performer": 7472,
      "performance": 7473,
      "lungs": 7474,
      "offering": 7475,
      "opinions": 7476,
      "meowing": 7477,
      "appreciation": 7478,
      "Square": 7479,
      "hesitation": 7480,
      "crowd": 7481,
      "Jonathan": 7482,
      "facts": 7483,
      "flavors": 7484,
      "Puss": 7485,
      "Pippy": 7486,
      "Booker": 7487,
      "Olivia": 7488,
      "Purple": 7489,
      "dollars": 7490,
      "Feeling": 7491,
      "Penelope": 7492,
      "Teacher": 7493,
      "forgiveness": 7494,
      "longest": 7495,
      "Sean": 7496,
      "munching": 7497,
      "ability": 7498,
      "slithered": 7499,
      "materials": 7500,
      "temperature": 7501,
      "squealed": 7502,
      "Circle": 7503,
      "rustling": 7504,
      "immering": 7505,
      "encountered": 7506,
      "convinced": 7507,
      "Bundles": 7508,
      "Brave": 7509,
      "intrigued": 7510,
      "reassur": 7511,
      "several": 7512,
      "anticipation": 7513,
      "Kanga": 7514,
      "Lupin": 7515,
      "Poochy": 7516,
      "Phillip": 7517,
      "Razor": 7518,
      "Sylvia": 7519,
      "bouquet": 7520,
      "generosity": 7521,
      "environment": 7522,
      "Ary": 7523,
      "Ana": 7524,
      "Alf": 7525,
      "Band": 7526,
      "Cara": 7527,
      "Cable": 7528,
      "Chair": 7529,
      "Caw": 7530,
      "Cory": 7531,
      "Dot": 7532,
      "Dee": 7533,
      "Eva": 7534,
      "Flick": 7535,
      "Freeze": 7536,
      "Furry": 7537,
      "Fortun": 7538,
      "Got": 7539,
      "Hank": 7540,
      "Jor": 7541,
      "Jelly": 7542,
      "Kari": 7543,
      "Lot": 7544,
      "Lime": 7545,
      "Mug": 7546,
      "Mick": 7547,
      "Opal": 7548,
      "Offic": 7549,
      "Pot": 7550,
      "Pear": 7551,
      "Play": 7552,
      "Passport": 7553,
      "Point": 7554,
      "Ry": 7555,
      "Rit": 7556,
      "Sug": 7557,
      "Sta": 7558,
      "Spicy": 7559,
      "Sweet": 7560,
      "Switch": 7561,
      "TH": 7562,
      "Too": 7563,
      "Use": 7564,
      "aven": 7565,
      "bil": 7566,
      "dial": 7567,
      "glee": 7568,
      "jured": 7569,
      "kill": 7570,
      "lull": 7571,
      "odd": 7572,
      "pound": 7573,
      "puck": 7574,
      "ssa": 7575,
      "tab": 7576,
      "uar": 7577,
      "uing": 7578,
      "heaven": 7579,
      "ans": 7580,
      "angrily": 7581,
      "injured": 7582,
      "resa": 7583,
      "refresh": 7584,
      "ene": 7585,
      "enem": 7586,
      "haw": 7587,
      "washes": 7588,
      "isies": 7589,
      "salon": 7590,
      "idence": 7591,
      "lever": 7592,
      "stroll": 7593,
      "ampered": 7594,
      "plum": 7595,
      "ige": 7596,
      "riches": 7597,
      "hiss": 7598,
      "playdate": 7599,
      "utch": 7600,
      "heron": 7601,
      "undone": 7602,
      "hatch": 7603,
      "als": 7604,
      "although": 7605,
      "shrank": 7606,
      "carp": 7607,
      "carve": 7608,
      "funn": 7609,
      "pecks": 7610,
      "paramed": 7611,
      "icent": 7612,
      "umble": 7613,
      "dee": 7614,
      "demon": 7615,
      "prank": 7616,
      "ongrat": 7617,
      "faith": 7618,
      "failed": 7619,
      "stomp": 7620,
      "coon": 7621,
      "causing": 7622,
      "type": 7623,
      "suns": 7624,
      "ift": 7625,
      "blu": 7626,
      "blur": 7627,
      "blade": 7628,
      "blades": 7629,
      "bber": 7630,
      "whir": 7631,
      "whine": 7632,
      "daddies": 7633,
      "tage": 7634,
      "Annabell": 7635,
      "elle": 7636,
      "acing": 7637,
      "Herbie": 7638,
      "doorbell": 7639,
      "foggy": 7640,
      "coloring": 7641,
      "bless": 7642,
      "towns": 7643,
      "joyfully": 7644,
      "ipes": 7645,
      "creamy": 7646,
      "warmly": 7647,
      "fixer": 7648,
      "final": 7649,
      "explo": 7650,
      "triangles": 7651,
      "ages": 7652,
      "disobeyed": 7653,
      "messed": 7654,
      "welcoming": 7655,
      "guided": 7656,
      "differently": 7657,
      "riverbank": 7658,
      "swimsuits": 7659,
      "plans": 7660,
      "flake": 7661,
      "glanced": 7662,
      "realise": 7663,
      "delivery": 7664,
      "brant": 7665,
      "treated": 7666,
      "spoiling": 7667,
      "snowflake": 7668,
      "whiskers": 7669,
      "seaweed": 7670,
      "rowing": 7671,
      "mixture": 7672,
      "scrun": 7673,
      "scampered": 7674,
      "prove": 7675,
      "understands": 7676,
      "shinier": 7677,
      "covering": 7678,
      "Fredrick": 7679,
      "heartbroken": 7680,
      "storms": 7681,
      "Rocco": 7682,
      "designing": 7683,
      "attend": 7684,
      "practised": 7685,
      "teams": 7686,
      "finishing": 7687,
      "chews": 7688,
      "gesture": 7689,
      "daisies": 7690,
      "digger": 7691,
      "flips": 7692,
      "tentacles": 7693,
      "tunes": 7694,
      "answering": 7695,
      "whispering": 7696,
      "Whoever": 7697,
      "ugging": 7698,
      "crowns": 7699,
      "bulbs": 7700,
      "toolbox": 7701,
      "blooms": 7702,
      "pressing": 7703,
      "guarding": 7704,
      "crocodiles": 7705,
      "resisted": 7706,
      "Seeing": 7707,
      "travels": 7708,
      "repairs": 7709,
      "hippos": 7710,
      "jets": 7711,
      "quarreled": 7712,
      "crickets": 7713,
      "mugs": 7714,
      "medals": 7715,
      "helicopters": 7716,
      "Snowball": 7717,
      "hunters": 7718,
      "cables": 7719,
      "explains": 7720,
      "Rude": 7721,
      "Orin": 7722,
      "cells": 7723,
      "nibbled": 7724,
      "styles": 7725,
      "darlings": 7726,
      "delaying": 7727,
      "rushing": 7728,
      "expecting": 7729,
      "experien": 7730,
      "luckily": 7731,
      "bends": 7732,
      "bendy": 7733,
      "seconds": 7734,
      "crashing": 7735,
      "lectures": 7736,
      "winks": 7737,
      "vibrant": 7738,
      "Melon": 7739,
      "disagreement": 7740,
      "Friendship": 7741,
      "niece": 7742,
      "providing": 7743,
      "smartest": 7744,
      "Tizzy": 7745,
      "Pol": 7746,
      "sleds": 7747,
      "situations": 7748,
      "Mixie": 7749,
      "pupils": 7750,
      "achieved": 7751,
      "sirens": 7752,
      "Lazy": 7753,
      "cousins": 7754,
      "Wooly": 7755,
      "robbers": 7756,
      "Pupil": 7757,
      "centr": 7758,
      "Laurie": 7759,
      "burst": 7760,
      "Tamia": 7761,
      "Teresa": 7762,
      "steering": 7763,
      "Harmony": 7764,
      "Ricky": 7765,
      "scraped": 7766,
      "cottage": 7767,
      "tidied": 7768,
      "compete": 7769,
      "Alyssa": 7770,
      "Jemma": 7771,
      "echoed": 7772,
      "grumbled": 7773,
      "Bibo": 7774,
      "Clouds": 7775,
      "Ginny": 7776,
      "whimpered": 7777,
      "Celina": 7778,
      "announced": 7779,
      "guesses": 7780,
      "Aiden": 7781,
      "Skip": 7782,
      "aisle": 7783,
      "smoother": 7784,
      "concerned": 7785,
      "Cookie": 7786,
      "theatre": 7787,
      "Arya": 7788,
      "Fortunately": 7789,
      "Jordan": 7790,
      "Lots": 7791,
      "Muggy": 7792,
      "Officer": 7793,
      "Potato": 7794,
      "Pearl": 7795,
      "Ryan": 7796,
      "Rita": 7797,
      "lullaby": 7798,
      "refreshing": 7799,
      "enemies": 7800,
      "paramedics": 7801,
      "demonstr": 7802,
      "Annabelle": 7803,
      "experienced": 7804,
      "',": 7805,
      "Ac": 7806,
      "Aman": 7807,
      "Ask": 7808,
      "Bed": 7809,
      "Bon": 7810,
      "Bess": 7811,
      "Bless": 7812,
      "Bones": 7813,
      "Care": 7814,
      "Cate": 7815,
      "Clive": 7816,
      "Dream": 7817,
      "Er": 7818,
      "Fle": 7819,
      "Flip": 7820,
      "France": 7821,
      "Gw": 7822,
      "Gill": 7823,
      "Hide": 7824,
      "Hana": 7825,
      "Im": 7826,
      "Kin": 7827,
      "Kara": 7828,
      "Kali": 7829,
      "Kirsty": 7830,
      "Lumber": 7831,
      "Larry": 7832,
      "Linda": 7833,
      "Nail": 7834,
      "Nico": 7835,
      "Oc": 7836,
      "Ox": 7837,
      "Past": 7838,
      "Pinch": 7839,
      "Rop": 7840,
      "Ret": 7841,
      "Rolly": 7842,
      "Ruth": 7843,
      "Rhythm": 7844,
      "Riley": 7845,
      "Sir": 7846,
      "Sab": 7847,
      "Sister": 7848,
      "Spi": 7849,
      "Seth": 7850,
      "Sien": 7851,
      "Tre": 7852,
      "Tip": 7853,
      "Taking": 7854,
      "Ve": 7855,
      "Wha": 7856,
      "Yo": 7857,
      "afar": 7858,
      "aquar": 7859,
      "born": 7860,
      "coug": 7861,
      "congrat": 7862,
      "dand": 7863,
      "dred": 7864,
      "dinky": 7865,
      "dips": 7866,
      "fired": 7867,
      "huff": 7868,
      "ibil": 7869,
      "lur": 7870,
      "limp": 7871,
      "mur": 7872,
      "ol": 7873,
      "ostriches": 7874,
      "pad": 7875,
      "pas": 7876,
      "passes": 7877,
      "rout": 7878,
      "rises": 7879,
      "rider": 7880,
      "rina": 7881,
      "snapping": 7882,
      "tran": 7883,
      "ucan": 7884,
      "ula": 7885,
      "wil": 7886,
      "”,": 7887,
      "toucan": 7888,
      "inted": 7889,
      "inspec": 7890,
      "incy": 7891,
      "rence": 7892,
      "reunited": 7893,
      "ering": 7894,
      "erasers": 7895,
      "online": 7896,
      "savan": 7897,
      "level": 7898,
      "ender": 7899,
      "endings": 7900,
      "strolled": 7901,
      "plank": 7902,
      "plumber": 7903,
      "bec": 7904,
      "rior": 7905,
      "unwrap": 7906,
      "lix": 7907,
      "ittered": 7908,
      "boil": 7909,
      "ford": 7910,
      "fet": 7911,
      "rack": 7912,
      "cated": 7913,
      "pest": 7914,
      "ager": 7915,
      "treas": 7916,
      "hoof": 7917,
      "Benjam": 7918,
      "otherwise": 7919,
      "Samuel": 7920,
      "laz": 7921,
      "seeking": 7922,
      "Momma": 7923,
      "uctor": 7924,
      "learner": 7925,
      "obsta": 7926,
      "icky": 7927,
      "quilt": 7928,
      "watermelon": 7929,
      "clam": 7930,
      "poppies": 7931,
      "clover": 7932,
      "bubb": 7933,
      "buddy": 7934,
      "thanking": 7935,
      "venir": 7936,
      "switches": 7937,
      "Thankfully": 7938,
      "handing": 7939,
      "sped": 7940,
      "spies": 7941,
      "untangle": 7942,
      "bluebird": 7943,
      "ruff": 7944,
      "earrings": 7945,
      "Noelle": 7946,
      "Jodie": 7947,
      "Joanna": 7948,
      "slug": 7949,
      "forests": 7950,
      "stepping": 7951,
      "topuses": 7952,
      "snip": 7953,
      "hearing": 7954,
      "nightfall": 7955,
      "tingling": 7956,
      "Johnson": 7957,
      "concentr": 7958,
      "enjoyable": 7959,
      "disgu": 7960,
      "airplanes": 7961,
      "Boy": 7962,
      "germs": 7963,
      "cruel": 7964,
      "lessons": 7965,
      "artled": 7966,
      "whee": 7967,
      "giants": 7968,
      "scener": 7969,
      "afford": 7970,
      "freezing": 7971,
      "drip": 7972,
      "minds": 7973,
      "iggled": 7974,
      "Grumpy": 7975,
      "fences": 7976,
      "wrapper": 7977,
      "distra": 7978,
      "attack": 7979,
      "lifeguard": 7980,
      "Bury": 7981,
      "warrior": 7982,
      "footprints": 7983,
      "battle": 7984,
      "scree": 7985,
      "copied": 7986,
      "zookeepers": 7987,
      "interest": 7988,
      "weaker": 7989,
      "stretches": 7990,
      "humming": 7991,
      "calmly": 7992,
      "dashed": 7993,
      "cherish": 7994,
      "testing": 7995,
      "protects": 7996,
      "lamps": 7997,
      "solute": 7998,
      "Luca": 7999,
      "awful": 8000,
      "suitcase": 8001,
      "examining": 8002,
      "combing": 8003,
      "silent": 8004,
      "Stand": 8005,
      "Startled": 8006,
      "spilling": 8007,
      "posts": 8008,
      "webs": 8009,
      "thieves": 8010,
      "Cari": 8011,
      "Cars": 8012,
      "Carlos": 8013,
      "dives": 8014,
      "thundercloud": 8015,
      "hamster": 8016,
      "weighs": 8017,
      "intelligence": 8018,
      "computers": 8019,
      "melts": 8020,
      "gears": 8021,
      "clip": 8022,
      "novels": 8023,
      "mattresses": 8024,
      "disappears": 8025,
      "Rubber": 8026,
      "meatballs": 8027,
      "aprons": 8028,
      "burying": 8029,
      "Marsha": 8030,
      "checking": 8031,
      "Sundays": 8032,
      "peeks": 8033,
      "Steven": 8034,
      "Paige": 8035,
      "bills": 8036,
      "Magnet": 8037,
      "Millicent": 8038,
      "Reading": 8039,
      "entering": 8040,
      "applauding": 8041,
      "Speed": 8042,
      "Quincy": 8043,
      "neighbours": 8044,
      "BeeBee": 8045,
      "Katy": 8046,
      "Move": 8047,
      "Keith": 8048,
      "Kevin": 8049,
      "experiences": 8050,
      "pearls": 8051,
      "Melinda": 8052,
      "emerged": 8053,
      "recipe": 8054,
      "approach": 8055,
      "Breezy": 8056,
      "Monkey": 8057,
      "peels": 8058,
      "Quickly": 8059,
      "stroke": 8060,
      "Printy": 8061,
      "container": 8062,
      "accomplished": 8063,
      "fluttering": 8064,
      "confidence": 8065,
      "Chewy": 8066,
      "firefighter": 8067,
      "Bethany": 8068,
      "chatter": 8069,
      "introducing": 8070,
      "Shrinky": 8071,
      "Queeny": 8072,
      "Amie": 8073,
      "Raccoon": 8074,
      "Jeffy": 8075,
      "Jayden": 8076,
      "Rae": 8077,
      "Slide": 8078,
      "Ballie": 8079,
      "Felix": 8080,
      "stains": 8081,
      "Penney": 8082,
      "instrument": 8083,
      "particularly": 8084,
      "mesmerised": 8085,
      "Excitedly": 8086,
      "Eduar": 8087,
      "astronauts": 8088,
      "Barky": 8089,
      "swaying": 8090,
      "Climbing": 8091,
      "dodged": 8092,
      "dodging": 8093,
      "charge": 8094,
      "occasion": 8095,
      "occasions": 8096,
      "freedom": 8097,
      "Florence": 8098,
      "Rainbow": 8099,
      "conductor": 8100,
      "dumped": 8101,
      "shooed": 8102,
      "Broccoli": 8103,
      "heights": 8104,
      "Grab": 8105,
      "squawked": 8106,
      "Tyler": 8107,
      "intently": 8108,
      "godmother": 8109,
      "stomped": 8110,
      "souvenir": 8111,
      "Animals": 8112,
      "skateboard": 8113,
      "ketchup": 8114,
      "snarled": 8115,
      "Whistler": 8116,
      "Jellyfish": 8117,
      "Sugar": 8118,
      "snowflakes": 8119,
      "Polite": 8120,
      "demonstrated": 8121,
      "Bonnie": 8122,
      "Bessy": 8123,
      "Ernie": 8124,
      "Gwen": 8125,
      "Nicola": 8126,
      "Ropy": 8127,
      "Sabrina": 8128,
      "Spiky": 8129,
      "Sienna": 8130,
      "Yogi": 8131,
      "aquarium": 8132,
      "coughed": 8133,
      "dande": 8134,
      "trans": 8135,
      "savanna": 8136,
      "Benjamin": 8137,
      "obstacle": 8138,
      "disguise": 8139,
      "scenery": 8140,
      "Eduardo": 8141,
      "Aw": 8142,
      "Aho": 8143,
      "Back": 8144,
      "Bret": 8145,
      "Basket": 8146,
      "Bert": 8147,
      "Ca": 8148,
      "Cle": 8149,
      "Claws": 8150,
      "Dar": 8151,
      "Ding": 8152,
      "Dro": 8153,
      "Down": 8154,
      "Ever": 8155,
      "Fan": 8156,
      "Fight": 8157,
      "Gl": 8158,
      "Goldy": 8159,
      "Hula": 8160,
      "Icy": 8161,
      "Jason": 8162,
      "Kir": 8163,
      "Lia": 8164,
      "Last": 8165,
      "Lift": 8166,
      "Mus": 8167,
      "Mous": 8168,
      "Mail": 8169,
      "Moki": 8170,
      "Ne": 8171,
      "Night": 8172,
      "Ot": 8173,
      "Orange": 8174,
      "Pou": 8175,
      "Pame": 8176,
      "Pick": 8177,
      "Pok": 8178,
      "Pru": 8179,
      "Piggy": 8180,
      "Phoe": 8181,
      "Ren": 8182,
      "Right": 8183,
      "Rel": 8184,
      "Rus": 8185,
      "Race": 8186,
      "Rever": 8187,
      "Rav": 8188,
      "Rico": 8189,
      "Sup": 8190,
      "Sour": 8191,
      "Shall": 8192,
      "Scamp": 8193,
      "Tid": 8194,
      "Tuck": 8195,
      "Teach": 8196,
      "Tell": 8197,
      "Terry": 8198,
      "Ug": 8199,
      "Windy": 8200,
      "Yog": 8201,
      "Zane": 8202,
      "Zog": 8203,
      "aboard": 8204,
      "bam": 8205,
      "bum": 8206,
      "blob": 8207,
      "chard": 8208,
      "crushed": 8209,
      "eze": 8210,
      "fif": 8211,
      "fade": 8212,
      "ferry": 8213,
      "gle": 8214,
      "giddy": 8215,
      "icated": 8216,
      "ka": 8217,
      "miest": 8218,
      "nif": 8219,
      "nip": 8220,
      "pand": 8221,
      "pom": 8222,
      "poop": 8223,
      "pipes": 8224,
      "shat": 8225,
      "sus": 8226,
      "sion": 8227,
      "til": 8228,
      "twent": 8229,
      "tant": 8230,
      "vas": 8231,
      "wok": 8232,
      "wicked": 8233,
      "ying": 8234,
      "za": 8235,
      "zipping": 8236,
      "hey": 8237,
      "antell": 8238,
      "rend": 8239,
      "rent": 8240,
      "rebuild": 8241,
      "reappeared": 8242,
      "habit": 8243,
      "arf": 8244,
      "iment": 8245,
      "oray": 8246,
      "orrow": 8247,
      "orchard": 8248,
      "necks": 8249,
      "Hear": 8250,
      "beating": 8251,
      "unwrapped": 8252,
      "thump": 8253,
      "upside": 8254,
      "address": 8255,
      "dodge": 8256,
      "booth": 8257,
      "album": 8258,
      "chin": 8259,
      "chill": 8260,
      "chilly": 8261,
      "asant": 8262,
      "aston": 8263,
      "Tomorrow": 8264,
      "oops": 8265,
      "birdie": 8266,
      "shrunk": 8267,
      "raising": 8268,
      "Onion": 8269,
      "outcome": 8270,
      "outfit": 8271,
      "carries": 8272,
      "peep": 8273,
      "urging": 8274,
      "canvas": 8275,
      "Butch": 8276,
      "Butter": 8277,
      "hover": 8278,
      "fuzzy": 8279,
      "aint": 8280,
      "owns": 8281,
      "facing": 8282,
      "etah": 8283,
      "stored": 8284,
      "cope": 8285,
      "caf": 8286,
      "goodness": 8287,
      "muster": 8288,
      "getic": 8289,
      "elbows": 8290,
      "teles": 8291,
      "whoever": 8292,
      "picious": 8293,
      "declar": 8294,
      "ives": 8295,
      "cled": 8296,
      "bbing": 8297,
      "surrend": 8298,
      "taps": 8299,
      "taker": 8300,
      "Annabel": 8301,
      "underwater": 8302,
      "Think": 8303,
      "Three": 8304,
      "leaking": 8305,
      "creep": 8306,
      "cheated": 8307,
      "cheetah": 8308,
      "winds": 8309,
      "compan": 8310,
      "magnif": 8311,
      "cts": 8312,
      "chains": 8313,
      "squished": 8314,
      "brakes": 8315,
      "stetho": 8316,
      "beautifully": 8317,
      "workshop": 8318,
      "keyhole": 8319,
      "snipped": 8320,
      "headache": 8321,
      "nights": 8322,
      "sandcastles": 8323,
      "couple": 8324,
      "conver": 8325,
      "conqu": 8326,
      "discouraged": 8327,
      "drawers": 8328,
      "guilt": 8329,
      "sleeps": 8330,
      "adventurer": 8331,
      "woodpeck": 8332,
      "lieve": 8333,
      "pleasant": 8334,
      "marve": 8335,
      "glittered": 8336,
      "reality": 8337,
      "mats": 8338,
      "cupine": 8339,
      "wolves": 8340,
      "snowing": 8341,
      "Believe": 8342,
      "apons": 8343,
      "signal": 8344,
      "prod": 8345,
      "proved": 8346,
      "process": 8347,
      "Rebec": 8348,
      "continuing": 8349,
      "amps": 8350,
      "cowboys": 8351,
      "hardest": 8352,
      "drill": 8353,
      "drift": 8354,
      "sacks": 8355,
      "knit": 8356,
      "mindful": 8357,
      "Freddie": 8358,
      "Gramps": 8359,
      "layer": 8360,
      "Chantell": 8361,
      "kissing": 8362,
      "chopping": 8363,
      "unicate": 8364,
      "bushy": 8365,
      "horri": 8366,
      "Rolo": 8367,
      "descri": 8368,
      "wildflowers": 8369,
      "beaks": 8370,
      "Helping": 8371,
      "hangers": 8372,
      "rags": 8373,
      "merma": 8374,
      "tests": 8375,
      "cooed": 8376,
      "protection": 8377,
      "tents": 8378,
      "imagin": 8379,
      "successfully": 8380,
      "swans": 8381,
      "spaces": 8382,
      "chocolates": 8383,
      "Brrr": 8384,
      "frustration": 8385,
      "lush": 8386,
      "engines": 8387,
      "sneezes": 8388,
      "orders": 8389,
      "shoots": 8390,
      "exams": 8391,
      "diamonds": 8392,
      "agreeing": 8393,
      "stretchy": 8394,
      "mailboxes": 8395,
      "roofs": 8396,
      "cidents": 8397,
      "octopuses": 8398,
      "accidents": 8399,
      "postman": 8400,
      "Spidy": 8401,
      "persistence": 8402,
      "leans": 8403,
      "squeezes": 8404,
      "Carol": 8405,
      "passionate": 8406,
      "staffs": 8407,
      "disappoint": 8408,
      "haircutter": 8409,
      "hundred": 8410,
      "bumping": 8411,
      "porcupine": 8412,
      "stacking": 8413,
      "flashed": 8414,
      "flashes": 8415,
      "scram": 8416,
      "hooks": 8417,
      "pilots": 8418,
      "messages": 8419,
      "Paula": 8420,
      "Original": 8421,
      "nibble": 8422,
      "Marcus": 8423,
      "ponytail": 8424,
      "energetic": 8425,
      "beeps": 8426,
      "discoveries": 8427,
      "holidays": 8428,
      "current": 8429,
      "windowsill": 8430,
      "Clumsy": 8431,
      "kayaks": 8432,
      "communicate": 8433,
      "lawyers": 8434,
      "kneeling": 8435,
      "allows": 8436,
      "Chef": 8437,
      "Shark": 8438,
      "Sharp": 8439,
      "pedaling": 8440,
      "valleys": 8441,
      "Squeeze": 8442,
      "sweeter": 8443,
      "expert": 8444,
      "experiment": 8445,
      "discussing": 8446,
      "slaps": 8447,
      "grandparents": 8448,
      "tours": 8449,
      "wiggly": 8450,
      "Judy": 8451,
      "banging": 8452,
      "honking": 8453,
      "Modest": 8454,
      "Thanksgiving": 8455,
      "settling": 8456,
      "sincere": 8457,
      "Liza": 8458,
      "disagreeing": 8459,
      "fantastic": 8460,
      "sneaks": 8461,
      "Monty": 8462,
      "Monica": 8463,
      "Flash": 8464,
      "Flutter": 8465,
      "timid": 8466,
      "restoring": 8467,
      "strokes": 8468,
      "complet": 8469,
      "cubs": 8470,
      "nightmares": 8471,
      "rescuing": 8472,
      "glittering": 8473,
      "Mikey": 8474,
      "tossing": 8475,
      "shrugs": 8476,
      "Quacky": 8477,
      "Janet": 8478,
      "Perri": 8479,
      "tumbling": 8480,
      "faction": 8481,
      "chatted": 8482,
      "Trucko": 8483,
      "Cowy": 8484,
      "burrow": 8485,
      "customers": 8486,
      "Mammy": 8487,
      "yummiest": 8488,
      "satisfaction": 8489,
      "Gulp": 8490,
      "gooey": 8491,
      "trigger": 8492,
      "Harley": 8493,
      "jacks": 8494,
      "abilities": 8495,
      "cotton": 8496,
      "Working": 8497,
      "servant": 8498,
      "possession": 8499,
      "responded": 8500,
      "Microscope": 8501,
      "Simmi": 8502,
      "Warmy": 8503,
      "stunning": 8504,
      "bounded": 8505,
      "waddled": 8506,
      "collapsed": 8507,
      "Stacy": 8508,
      "killed": 8509,
      "hawk": 8510,
      "blushed": 8511,
      "Accidents": 8512,
      "Fleur": 8513,
      "Frances": 8514,
      "Octopus": 8515,
      "Whale": 8516,
      "lurking": 8517,
      "murky": 8518,
      "pastor": 8519,
      "fetched": 8520,
      "treasured": 8521,
      "bubbly": 8522,
      "solutely": 8523,
      "dandelion": 8524,
      "transformed": 8525,
      "Ahoy": 8526,
      "Brett": 8527,
      "Basketball": 8528,
      "Darrin": 8529,
      "Drop": 8530,
      "Fanny": 8531,
      "Fighting": 8532,
      "Kiran": 8533,
      "Music": 8534,
      "Mousy": 8535,
      "Poula": 8536,
      "Pamela": 8537,
      "Pokie": 8538,
      "Prune": 8539,
      "Phoebe": 8540,
      "Renee": 8541,
      "Russel": 8542,
      "Reverse": 8543,
      "Ravi": 8544,
      "Super": 8545,
      "Scampi": 8546,
      "Tidier": 8547,
      "Yoga": 8548,
      "bamboo": 8549,
      "pandas": 8550,
      "twenty": 8551,
      "tantrum": 8552,
      "woken": 8553,
      "mustered": 8554,
      "telescope": 8555,
      "declared": 8556,
      "surrendered": 8557,
      "companion": 8558,
      "stethoscope": 8559,
      "woodpecker": 8560,
      "Rebecca": 8561,
      "Chantelle": 8562,
      ".’": 8563,
      "?!": 8564,
      "AT": 8565,
      "Ari": 8566,
      "Aur": 8567,
      "Ame": 8568,
      "Amber": 8569,
      "Bring": 8570,
      "Cand": 8571,
      "Click": 8572,
      "Cream": 8573,
      "Dap": 8574,
      "Enorm": 8575,
      "Eating": 8576,
      "Free": 8577,
      "Faster": 8578,
      "Foldy": 8579,
      "Gary": 8580,
      "Grow": 8581,
      "Hot": 8582,
      "Hug": 8583,
      "Hung": 8584,
      "Haz": 8585,
      "Ig": 8586,
      "Jell": 8587,
      "Kid": 8588,
      "Kelse": 8589,
      "Kately": 8590,
      "Light": 8591,
      "Lance": 8592,
      "Mal": 8593,
      "Much": 8594,
      "Matt": 8595,
      "Mira": 8596,
      "Na": 8597,
      "Nat": 8598,
      "Nature": 8599,
      "Noki": 8600,
      "Over": 8601,
      "Pl": 8602,
      "Pilot": 8603,
      "Plan": 8604,
      "Rir": 8605,
      "Rumble": 8606,
      "Sit": 8607,
      "Sing": 8608,
      "Sca": 8609,
      "Spu": 8610,
      "Str": 8611,
      "Serious": 8612,
      "Ta": 8613,
      "Ten": 8614,
      "Tay": 8615,
      "Tra": 8616,
      "Tek": 8617,
      "Trunk": 8618,
      "Tears": 8619,
      "Wr": 8620,
      "Xia": 8621,
      "Years": 8622,
      "ause": 8623,
      "bon": 8624,
      "bid": 8625,
      "bending": 8626,
      "cities": 8627,
      "ds": 8628,
      "dries": 8629,
      "ditch": 8630,
      "dumb": 8631,
      "fading": 8632,
      "groom": 8633,
      "gates": 8634,
      "glistening": 8635,
      "hne": 8636,
      "mend": 8637,
      "mow": 8638,
      "mound": 8639,
      "main": 8640,
      "mallows": 8641,
      "oar": 8642,
      "pher": 8643,
      "ruck": 8644,
      "rist": 8645,
      "sly": 8646,
      "sinking": 8647,
      "tar": 8648,
      "tchy": 8649,
      "tugging": 8650,
      "tender": 8651,
      "vive": 8652,
      "vince": 8653,
      "wiggling": 8654,
      "anation": 8655,
      "thed": 8656,
      "infor": 8657,
      "insepar": 8658,
      "itam": 8659,
      "ites": 8660,
      "ouched": 8661,
      "enger": 8662,
      "onde": 8663,
      "ima": 8664,
      "llas": 8665,
      "lest": 8666,
      "stump": 8667,
      "stinky": 8668,
      "stantly": 8669,
      "oring": 8670,
      "pled": 8671,
      "plat": 8672,
      "plun": 8673,
      "ats": 8674,
      "attempt": 8675,
      "ilder": 8676,
      "begun": 8677,
      "loaf": 8678,
      "unted": 8679,
      "unless": 8680,
      "ldy": 8681,
      "hates": 8682,
      "weapons": 8683,
      "ader": 8684,
      "admit": 8685,
      "bobbing": 8686,
      "chip": 8687,
      "Tomato": 8688,
      "roles": 8689,
      "roamed": 8690,
      "namon": 8691,
      "ooking": 8692,
      "smash": 8693,
      "shmallows": 8694,
      "raked": 8695,
      "racer": 8696,
      "carved": 8697,
      "carton": 8698,
      "funeral": 8699,
      "catnip": 8700,
      "melo": 8701,
      "doggie": 8702,
      "hoses": 8703,
      "ums": 8704,
      "umed": 8705,
      "manager": 8706,
      "background": 8707,
      "Samson": 8708,
      "fail": 8709,
      "coiled": 8710,
      "cobra": 8711,
      "cocked": 8712,
      "worst": 8713,
      "ssil": 8714,
      "Soar": 8715,
      "ieter": 8716,
      "lowers": 8717,
      "Lucas": 8718,
      "quieter": 8719,
      "cluck": 8720,
      "blank": 8721,
      "blonde": 8722,
      "moan": 8723,
      "bras": 8724,
      "posit": 8725,
      "survive": 8726,
      "whines": 8727,
      "trim": 8728,
      "trot": 8729,
      "flyer": 8730,
      "Though": 8731,
      "Through": 8732,
      "handles": 8733,
      "kindest": 8734,
      "leashes": 8735,
      "raincoat": 8736,
      "creak": 8737,
      "nearly": 8738,
      "spied": 8739,
      "perate": 8740,
      "foam": 8741,
      "fossil": 8742,
      "Join": 8743,
      "Joel": 8744,
      "slime": 8745,
      "squir": 8746,
      "squinted": 8747,
      "braced": 8748,
      "ptain": 8749,
      "listener": 8750,
      "softened": 8751,
      "softness": 8752,
      "softest": 8753,
      "month": 8754,
      "warmed": 8755,
      "sooner": 8756,
      "zzle": 8757,
      "zzes": 8758,
      "sery": 8759,
      "serves": 8760,
      "explanation": 8761,
      "cracks": 8762,
      "ponds": 8763,
      "wriggled": 8764,
      "tors": 8765,
      "movements": 8766,
      "sharpen": 8767,
      "convince": 8768,
      "enjoys": 8769,
      "followers": 8770,
      "gulp": 8771,
      "gulped": 8772,
      "zebras": 8773,
      "floors": 8774,
      "Boom": 8775,
      "adventurers": 8776,
      "landing": 8777,
      "ientist": 8778,
      "promising": 8779,
      "woodcutter": 8780,
      "Toddy": 8781,
      "swimsuit": 8782,
      "traps": 8783,
      "fights": 8784,
      "cris": 8785,
      "crum": 8786,
      "crouched": 8787,
      "hops": 8788,
      "marking": 8789,
      "marine": 8790,
      "marshmallows": 8791,
      "fling": 8792,
      "coolness": 8793,
      "mustn": 8794,
      "glimmering": 8795,
      "nestled": 8796,
      "mation": 8797,
      "drowned": 8798,
      "winking": 8799,
      "cupcake": 8800,
      "spoken": 8801,
      "business": 8802,
      "quizzes": 8803,
      "ounce": 8804,
      "visible": 8805,
      "prey": 8806,
      "mixes": 8807,
      "science": 8808,
      "scrubbing": 8809,
      "scene": 8810,
      "scoops": 8811,
      "scientist": 8812,
      "elect": 8813,
      "sprung": 8814,
      "piglets": 8815,
      "cowboy": 8816,
      "freely": 8817,
      "speck": 8818,
      "syring": 8819,
      "jars": 8820,
      "secretly": 8821,
      "believing": 8822,
      "knives": 8823,
      "vast": 8824,
      "benches": 8825,
      "Choo": 8826,
      "Christ": 8827,
      "chopped": 8828,
      "Peace": 8829,
      "shyly": 8830,
      "calf": 8831,
      "circled": 8832,
      "meetings": 8833,
      "attitude": 8834,
      "adds": 8835,
      "Cats": 8836,
      "sickness": 8837,
      "eldest": 8838,
      "saves": 8839,
      "prized": 8840,
      "prizes": 8841,
      "alongside": 8842,
      "protein": 8843,
      "hummed": 8844,
      "cherished": 8845,
      "coolest": 8846,
      "mattered": 8847,
      "trusts": 8848,
      "respecting": 8849,
      "Meadow": 8850,
      "flicked": 8851,
      "flippers": 8852,
      "blower": 8853,
      "soapy": 8854,
      "scares": 8855,
      "striking": 8856,
      "sneezy": 8857,
      "islands": 8858,
      "depths": 8859,
      "example": 8860,
      "engineer": 8861,
      "motors": 8862,
      "flashing": 8863,
      "zips": 8864,
      "picnics": 8865,
      "accidently": 8866,
      "trumpets": 8867,
      "seriously": 8868,
      "borrowing": 8869,
      "postcards": 8870,
      "judges": 8871,
      "desks": 8872,
      "sniffling": 8873,
      "umbrellas": 8874,
      "Carly": 8875,
      "Robin": 8876,
      "Robbie": 8877,
      "sleigh": 8878,
      "tanks": 8879,
      "speeds": 8880,
      "speaker": 8881,
      "fishes": 8882,
      "hammers": 8883,
      "hammered": 8884,
      "cauliflowers": 8885,
      "trailer": 8886,
      "Alvin": 8887,
      "ribbit": 8888,
      "dustpan": 8889,
      "succeeding": 8890,
      "collars": 8891,
      "buckled": 8892,
      "section": 8893,
      "disappearing": 8894,
      "studies": 8895,
      "Hooray": 8896,
      "pistols": 8897,
      "suggests": 8898,
      "suggestion": 8899,
      "eyed": 8900,
      "cellent": 8901,
      "nibbling": 8902,
      "March": 8903,
      "nations": 8904,
      "checkout": 8905,
      "Frogs": 8906,
      "granny": 8907,
      "Coal": 8908,
      "chanted": 8909,
      "submarine": 8910,
      "cuddling": 8911,
      "beetles": 8912,
      "surfed": 8913,
      "Club": 8914,
      "Susan": 8915,
      "applause": 8916,
      "yielding": 8917,
      "supplied": 8918,
      "increasing": 8919,
      "kneels": 8920,
      "Check": 8921,
      "delightful": 8922,
      "extraordinary": 8923,
      "tickles": 8924,
      "contents": 8925,
      "thumbs": 8926,
      "honor": 8927,
      "Moira": 8928,
      "quacks": 8929,
      "Davy": 8930,
      "unicorns": 8931,
      "!''": 8932,
      "!'.": 8933,
      "meows": 8934,
      "appreciated": 8935,
      "challenges": 8936,
      "waistbands": 8937,
      "sprinkle": 8938,
      "refusing": 8939,
      "aliens": 8940,
      "paddling": 8941,
      "slices": 8942,
      "udged": 8943,
      "crowded": 8944,
      "racers": 8945,
      "rumbling": 8946,
      "Bailey": 8947,
      "cinnamon": 8948,
      "deserved": 8949,
      "deserves": 8950,
      "officers": 8951,
      "releasing": 8952,
      "property": 8953,
      "honks": 8954,
      "Drink": 8955,
      "fascinating": 8956,
      "Sayid": 8957,
      "Truckie": 8958,
      "Oakley": 8959,
      "popsic": 8960,
      "Otherwise": 8961,
      "Piney": 8962,
      "costs": 8963,
      "confidently": 8964,
      "Ahh": 8965,
      "Ruffles": 8966,
      "connect": 8967,
      "hooves": 8968,
      "Stretchy": 8969,
      "nuzzles": 8970,
      "Crocodile": 8971,
      "amongst": 8972,
      "deeds": 8973,
      "Cece": 8974,
      "matey": 8975,
      "swayed": 8976,
      "puffy": 8977,
      "puffed": 8978,
      "character": 8979,
      "sculptures": 8980,
      "competing": 8981,
      "Alya": 8982,
      "Flop": 8983,
      "Jemima": 8984,
      "condition": 8985,
      "Dolls": 8986,
      "Brother": 8987,
      "instantly": 8988,
      "leaping": 8989,
      "servants": 8990,
      "lanterns": 8991,
      "Confused": 8992,
      "Connor": 8993,
      "crafts": 8994,
      "Stretching": 8995,
      "Anytime": 8996,
      "Chugger": 8997,
      "nurses": 8998,
      "nursery": 8999,
      "considerate": 9000,
      "Fairland": 9001,
      "lunged": 9002,
      "panting": 9003,
      "defeated": 9004,
      "Alfie": 9005,
      "tablet": 9006,
      "scrunch": 9007,
      "attendant": 9008,
      "Immediately": 9009,
      "Lumbery": 9010,
      "Reta": 9011,
      "Trees": 9012,
      "Veil": 9013,
      "congratul": 9014,
      "lazily": 9015,
      "concentrated": 9016,
      "warriors": 9017,
      "Captain": 9018,
      "Otto": 9019,
      "Relax": 9020,
      "gleam": 9021,
      "suspicious": 9022,
      "magnifying": 9023,
      "conversation": 9024,
      "horrible": 9025,
      "scrambled": 9026,
      "completing": 9027,
      "Aurora": 9028,
      "Amelia": 9029,
      "Daphne": 9030,
      "Enormous": 9031,
      "Hazel": 9032,
      "Jellie": 9033,
      "Kelsey": 9034,
      "Katelyn": 9035,
      "Lightning": 9036,
      "Lancelot": 9037,
      "Malerious": 9038,
      "Natalie": 9039,
      "Planet": 9040,
      "Riri": 9041,
      "Scale": 9042,
      "Spud": 9043,
      "String": 9044,
      "Taylor": 9045,
      "Xiao": 9046,
      "rucksack": 9047,
      "information": 9048,
      "inseparable": 9049,
      "platform": 9050,
      "syringe": 9051,
      "Christmas": 9052,
      "\"!": 9053,
      ",’": 9054,
      "?,\"": 9055,
      "AN": 9056,
      "AR": 9057,
      "Ag": 9058,
      "Apr": 9059,
      "Amo": 9060,
      "Aero": 9061,
      "Alic": 9062,
      "Bex": 9063,
      "CR": 9064,
      "Cot": 9065,
      "Cher": 9066,
      "Cran": 9067,
      "Clay": 9068,
      "Dif": 9069,
      "Eli": 9070,
      "Eag": 9071,
      "Eric": 9072,
      "Fa": 9073,
      "Fr": 9074,
      "Fore": 9075,
      "Four": 9076,
      "Fion": 9077,
      "Fool": 9078,
      "Fast": 9079,
      "Fuzz": 9080,
      "Gerry": 9081,
      "HH": 9082,
      "Hand": 9083,
      "Hum": 9084,
      "Hanger": 9085,
      "Jad": 9086,
      "Jas": 9087,
      "Jade": 9088,
      "Jeth": 9089,
      "Juli": 9090,
      "Ky": 9091,
      "Kira": 9092,
      "Long": 9093,
      "Liddy": 9094,
      "Looking": 9095,
      "Mis": 9096,
      "Mat": 9097,
      "Mak": 9098,
      "Math": 9099,
      "Milk": 9100,
      "Marry": 9101,
      "NO": 9102,
      "Nor": 9103,
      "Nap": 9104,
      "Pig": 9105,
      "Pull": 9106,
      "Pray": 9107,
      "Rot": 9108,
      "Rrr": 9109,
      "Sc": 9110,
      "Sw": 9111,
      "Sid": 9112,
      "Send": 9113,
      "Shand": 9114,
      "Slap": 9115,
      "Tag": 9116,
      "Turn": 9117,
      "Win": 9118,
      "Was": 9119,
      "Yield": 9120,
      "Yipp": 9121,
      "aa": 9122,
      "awoke": 9123,
      "afloat": 9124,
      "bs": 9125,
      "bt": 9126,
      "bond": 9127,
      "cies": 9128,
      "dou": 9129,
      "elt": 9130,
      "fto": 9131,
      "fate": 9132,
      "fond": 9133,
      "faint": 9134,
      "gry": 9135,
      "gic": 9136,
      "glistened": 9137,
      "gaz": 9138,
      "izz": 9139,
      "iky": 9140,
      "juggle": 9141,
      "ko": 9142,
      "ks": 9143,
      "lim": 9144,
      "lmed": 9145,
      "liness": 9146,
      "lasers": 9147,
      "mun": 9148,
      "nood": 9149,
      "opped": 9150,
      "ocu": 9151,
      "ping": 9152,
      "piled": 9153,
      "rus": 9154,
      "shave": 9155,
      "swat": 9156,
      "signing": 9157,
      "tit": 9158,
      "ua": 9159,
      "uis": 9160,
      "vided": 9161,
      "vending": 9162,
      "vitam": 9163,
      "wre": 9164,
      "wren": 9165,
      "’.": 9166,
      "anage": 9167,
      "eds": 9168,
      "eded": 9169,
      "toot": 9170,
      "topp": 9171,
      "inched": 9172,
      "invisible": 9173,
      "rejo": 9174,
      "reappear": 9175,
      "wax": 9176,
      "wary": 9177,
      "enclo": 9178,
      "enchanted": 9179,
      "oma": 9180,
      "omi": 9181,
      "argum": 9182,
      "aroma": 9183,
      "impa": 9184,
      "sal": 9185,
      "sam": 9186,
      "lefto": 9187,
      "stam": 9188,
      "stur": 9189,
      "stif": 9190,
      "stained": 9191,
      "orph": 9192,
      "neighed": 9193,
      "placing": 9194,
      "plopped": 9195,
      "atha": 9196,
      "ative": 9197,
      "beth": 9198,
      "richest": 9199,
      "ricity": 9200,
      "loser": 9201,
      "local": 9202,
      "utched": 9203,
      "undo": 9204,
      "unlike": 9205,
      "unte": 9206,
      "unkind": 9207,
      "unforget": 9208,
      "unity": 9209,
      "unscrew": 9210,
      "untwisted": 9211,
      "Shell": 9212,
      "thous": 9213,
      "exchange": 9214,
      "excellent": 9215,
      "ady": 9216,
      "adually": 9217,
      "addresses": 9218,
      "wanna": 9219,
      "dock": 9220,
      "dozed": 9221,
      "doomed": 9222,
      "bold": 9223,
      "boiling": 9224,
      "aly": 9225,
      "ality": 9226,
      "ential": 9227,
      "chugged": 9228,
      "soo": 9229,
      "soothing": 9230,
      "esy": 9231,
      "smelt": 9232,
      "shimmering": 9233,
      "raw": 9234,
      "raises": 9235,
      "railing": 9236,
      "tered": 9237,
      "loosen": 9238,
      "cardin": 9239,
      "peat": 9240,
      "urs": 9241,
      "mest": 9242,
      "gogg": 9243,
      "gopher": 9244,
      "fuss": 9245,
      "furious": 9246,
      "hens": 9247,
      "axes": 9248,
      "abbed": 9249,
      "absolutely": 9250,
      "owning": 9251,
      "parking": 9252,
      "lava": 9253,
      "launch": 9254,
      "potential": 9255,
      "likely": 9256,
      "fulfill": 9257,
      "details": 9258,
      "capes": 9259,
      "goodies": 9260,
      "gradually": 9261,
      "shaving": 9262,
      "types": 9263,
      "ssed": 9264,
      "sung": 9265,
      "icking": 9266,
      "lotte": 9267,
      "peculi": 9268,
      "teen": 9269,
      "deciding": 9270,
      "ously": 9271,
      "atest": 9272,
      "Anders": 9273,
      "puppies": 9274,
      "clutch": 9275,
      "clutched": 9276,
      "moat": 9277,
      "mopping": 9278,
      "bride": 9279,
      "greed": 9280,
      "Lets": 9281,
      "Angry": 9282,
      "poles": 9283,
      "jumper": 9284,
      "fasten": 9285,
      "nicest": 9286,
      "mashed": 9287,
      "maje": 9288,
      "makers": 9289,
      "palet": 9290,
      "cloak": 9291,
      "ooky": 9292,
      "tales": 9293,
      "bubbling": 9294,
      "builder": 9295,
      "trader": 9296,
      "access": 9297,
      "acul": 9298,
      "howl": 9299,
      "howled": 9300,
      "swoop": 9301,
      "kinder": 9302,
      "leapt": 9303,
      "lists": 9304,
      "cheesy": 9305,
      "fived": 9306,
      "stray": 9307,
      "bedding": 9308,
      "twitched": 9309,
      "spades": 9310,
      "spiky": 9311,
      "spooky": 9312,
      "winding": 9313,
      "compar": 9314,
      "compromise": 9315,
      "cleans": 9316,
      "overwhe": 9317,
      "maged": 9318,
      "perately": 9319,
      "Dolp": 9320,
      "appet": 9321,
      "hurtful": 9322,
      "gardens": 9323,
      "magically": 9324,
      "Whatever": 9325,
      "dying": 9326,
      "steered": 9327,
      "singers": 9328,
      "venture": 9329,
      "swingset": 9330,
      "rightful": 9331,
      "Looks": 9332,
      "snug": 9333,
      "snugg": 9334,
      "snatch": 9335,
      "snoring": 9336,
      "zzling": 9337,
      "service": 9338,
      "finishes": 9339,
      "throne": 9340,
      "triumph": 9341,
      "tingle": 9342,
      "floppy": 9343,
      "coldness": 9344,
      "sandy": 9345,
      "sandals": 9346,
      "lightly": 9347,
      "displaying": 9348,
      "disobedient": 9349,
      "disobey": 9350,
      "disaster": 9351,
      "messier": 9352,
      "ferent": 9353,
      "sweetly": 9354,
      "dinners": 9355,
      "landsca": 9356,
      "Lilah": 9357,
      "misty": 9358,
      "crutch": 9359,
      "wisest": 9360,
      "flu": 9361,
      "cooled": 9362,
      "gladly": 9363,
      "glided": 9364,
      "glues": 9365,
      "treating": 9366,
      "surely": 9367,
      "tastiest": 9368,
      "snowy": 9369,
      "snowed": 9370,
      "rots": 9371,
      "rotted": 9372,
      "emera": 9373,
      "embraced": 9374,
      "drying": 9375,
      "contented": 9376,
      "divided": 9377,
      "purring": 9378,
      "scri": 9379,
      "scowl": 9380,
[...]
